// Auto-generated TFLite model data
#ifndef HUMAN_ANIMAL_MODEL_DATA_H
#define HUMAN_ANIMAL_MODEL_DATA_H

const unsigned int human_animal_model_tflite_len = 12488;
alignas(8) const unsigned char human_animal_model_tflite[] = {
  0x1c, 0x00, 0x00, 0x00, 0x54, 0x46, 0x4c, 0x33, 0x14, 0x00, 0x20, 0x00, 
  0x1c, 0x00, 0x18, 0x00, 0x14, 0x00, 0x10, 0x00, 0x0c, 0x00, 0x00, 0x00, 
  0x08, 0x00, 0x04, 0x00, 0x14, 0x00, 0x00, 0x00, 0x1c, 0x00, 0x00, 0x00, 
  0xac, 0x00, 0x00, 0x00, 0x04, 0x01, 0x00, 0x00, 0xa8, 0x1c, 0x00, 0x00, 
  0xb8, 0x1c, 0x00, 0x00, 0xc0, 0x2f, 0x00, 0x00, 0x03, 0x00, 0x00, 0x00, 
  0x01, 0x00, 0x00, 0x00, 0x04, 0x00, 0x00, 0x00, 0xae, 0xe0, 0xff, 0xff, 
  0x0c, 0x00, 0x00, 0x00, 0x1c, 0x00, 0x00, 0x00, 0x3c, 0x00, 0x00, 0x00, 
  0x0f, 0x00, 0x00, 0x00, 0x73, 0x65, 0x72, 0x76, 0x69, 0x6e, 0x67, 0x5f, 
  0x64, 0x65, 0x66, 0x61, 0x75, 0x6c, 0x74, 0x00, 0x01, 0x00, 0x00, 0x00, 
  0x04, 0x00, 0x00, 0x00, 0x70, 0xff, 0xff, 0xff, 0x1f, 0x00, 0x00, 0x00, 
  0x04, 0x00, 0x00, 0x00, 0x08, 0x00, 0x00, 0x00, 0x6f, 0x75, 0x74, 0x70, 
  0x75, 0x74, 0x5f, 0x30, 0x00, 0x00, 0x00, 0x00, 0x02, 0x00, 0x00, 0x00, 
  0x28, 0x00, 0x00, 0x00, 0x04, 0x00, 0x00, 0x00, 0x98, 0xff, 0xff, 0xff, 
  0x01, 0x00, 0x00, 0x00, 0x04, 0x00, 0x00, 0x00, 0x0d, 0x00, 0x00, 0x00, 
  0x74, 0x68, 0x65, 0x72, 0x6d, 0x61, 0x6c, 0x5f, 0x69, 0x6e, 0x70, 0x75, 
  0x74, 0x00, 0x00, 0x00, 0xda, 0xe0, 0xff, 0xff, 0x04, 0x00, 0x00, 0x00, 
  0x0b, 0x00, 0x00, 0x00, 0x72, 0x61, 0x64, 0x61, 0x72, 0x5f, 0x69, 0x6e, 
  0x70, 0x75, 0x74, 0x00, 0x02, 0x00, 0x00, 0x00, 0x34, 0x00, 0x00, 0x00, 
  0x04, 0x00, 0x00, 0x00, 0xdc, 0xff, 0xff, 0xff, 0x22, 0x00, 0x00, 0x00, 
  0x04, 0x00, 0x00, 0x00, 0x13, 0x00, 0x00, 0x00, 0x43, 0x4f, 0x4e, 0x56, 
  0x45, 0x52, 0x53, 0x49, 0x4f, 0x4e, 0x5f, 0x4d, 0x45, 0x54, 0x41, 0x44, 
  0x41, 0x54, 0x41, 0x00, 0x08, 0x00, 0x0c, 0x00, 0x08, 0x00, 0x04, 0x00, 
  0x08, 0x00, 0x00, 0x00, 0x21, 0x00, 0x00, 0x00, 0x04, 0x00, 0x00, 0x00, 
  0x13, 0x00, 0x00, 0x00, 0x6d, 0x69, 0x6e, 0x5f, 0x72, 0x75, 0x6e, 0x74, 
  0x69, 0x6d, 0x65, 0x5f, 0x76, 0x65, 0x72, 0x73, 0x69, 0x6f, 0x6e, 0x00, 
  0x23, 0x00, 0x00, 0x00, 0xa0, 0x1b, 0x00, 0x00, 0x98, 0x1b, 0x00, 0x00, 
  0x90, 0x1b, 0x00, 0x00, 0x6c, 0x1b, 0x00, 0x00, 0x58, 0x1b, 0x00, 0x00, 
  0x44, 0x1b, 0x00, 0x00, 0x30, 0x1b, 0x00, 0x00, 0x1c, 0x1b, 0x00, 0x00, 
  0xfc, 0x1a, 0x00, 0x00, 0xf4, 0x1a, 0x00, 0x00, 0x64, 0x1a, 0x00, 0x00, 
  0x34, 0x1a, 0x00, 0x00, 0x14, 0x1a, 0x00, 0x00, 0xfc, 0x19, 0x00, 0x00, 
  0x6c, 0x15, 0x00, 0x00, 0xac, 0x13, 0x00, 0x00, 0x9c, 0x12, 0x00, 0x00, 
  0x0c, 0x01, 0x00, 0x00, 0x04, 0x01, 0x00, 0x00, 0xfc, 0x00, 0x00, 0x00, 
  0xf4, 0x00, 0x00, 0x00, 0xec, 0x00, 0x00, 0x00, 0xe4, 0x00, 0x00, 0x00, 
  0xdc, 0x00, 0x00, 0x00, 0xd4, 0x00, 0x00, 0x00, 0xcc, 0x00, 0x00, 0x00, 
  0xc4, 0x00, 0x00, 0x00, 0xbc, 0x00, 0x00, 0x00, 0xb4, 0x00, 0x00, 0x00, 
  0xac, 0x00, 0x00, 0x00, 0xa4, 0x00, 0x00, 0x00, 0x9c, 0x00, 0x00, 0x00, 
  0x94, 0x00, 0x00, 0x00, 0x74, 0x00, 0x00, 0x00, 0x04, 0x00, 0x00, 0x00, 
  0xde, 0xe1, 0xff, 0xff, 0x04, 0x00, 0x00, 0x00, 0x60, 0x00, 0x00, 0x00, 
  0x0c, 0x00, 0x00, 0x00, 0x08, 0x00, 0x0e, 0x00, 0x08, 0x00, 0x04, 0x00, 
  0x08, 0x00, 0x00, 0x00, 0x10, 0x00, 0x00, 0x00, 0x28, 0x00, 0x00, 0x00, 
  0x00, 0x00, 0x06, 0x00, 0x08, 0x00, 0x04, 0x00, 0x06, 0x00, 0x00, 0x00, 
  0x04, 0x00, 0x00, 0x00, 0x01, 0x00, 0x00, 0x00, 0xea, 0x03, 0x00, 0x00, 
  0x0c, 0x00, 0x18, 0x00, 0x14, 0x00, 0x10, 0x00, 0x0c, 0x00, 0x04, 0x00, 
  0x0c, 0x00, 0x00, 0x00, 0xc9, 0x3b, 0x93, 0xfd, 0xc1, 0x5f, 0x57, 0x39, 
  0x02, 0x00, 0x00, 0x00, 0x02, 0x00, 0x00, 0x00, 0x04, 0x00, 0x00, 0x00, 
  0x06, 0x00, 0x00, 0x00, 0x32, 0x2e, 0x32, 0x30, 0x2e, 0x30, 0x00, 0x00, 
  0x4a, 0xe2, 0xff, 0xff, 0x04, 0x00, 0x00, 0x00, 0x10, 0x00, 0x00, 0x00, 
  0x32, 0x2e, 0x31, 0x37, 0x2e, 0x30, 0x00, 0x00, 0x00, 0x00, 0x00, 0x00, 
  0x00, 0x00, 0x00, 0x00, 0x8c, 0xd2, 0xff, 0xff, 0x90, 0xd2, 0xff, 0xff, 
  0x94, 0xd2, 0xff, 0xff, 0x98, 0xd2, 0xff, 0xff, 0x9c, 0xd2, 0xff, 0xff, 
  0xa0, 0xd2, 0xff, 0xff, 0xa4, 0xd2, 0xff, 0xff, 0xa8, 0xd2, 0xff, 0xff, 
  0xac, 0xd2, 0xff, 0xff, 0xb0, 0xd2, 0xff, 0xff, 0xb4, 0xd2, 0xff, 0xff, 
  0xb8, 0xd2, 0xff, 0xff, 0xbc, 0xd2, 0xff, 0xff, 0xc0, 0xd2, 0xff, 0xff, 
  0xc4, 0xd2, 0xff, 0xff, 0xa2, 0xe2, 0xff, 0xff, 0x04, 0x00, 0x00, 0x00, 
  0x80, 0x11, 0x00, 0x00, 0x3a, 0x9a, 0x59, 0xbd, 0x58, 0xae, 0xec, 0xa9, 
  0x34, 0x05, 0x9e, 0x4a, 0xc5, 0x8b, 0x30, 0xd8, 0x81, 0x37, 0x56, 0xa6, 
  0x2f, 0xf7, 0x38, 0xa6, 0xe0, 0x19, 0x31, 0x37, 0xde, 0xeb, 0xb8, 0x19, 
  0x2d, 0x5f, 0x49, 0x20, 0xc0, 0x1b, 0xfe, 0x32, 0xb7, 0xbe, 0x36, 0xf3, 
  0xe2, 0x04, 0xeb, 0x55, 0xdd, 0x1c, 0xd2, 0x2e, 0x3a, 0xd8, 0xeb, 0x07, 
  0xaf, 0x88, 0xc8, 0x89, 0x38, 0xbf, 0xe4, 0x96, 0x95, 0xa0, 0xc9, 0xe3, 
  0x38, 0x45, 0x03, 0xa4, 0x67, 0x95, 0x40, 0xb6, 0xa1, 0x10, 0x99, 0xd2, 
  0xea, 0x35, 0x9f, 0x38, 0x1e, 0xe6, 0x3f, 0x04, 0x32, 0x24, 0x4a, 0xc1, 
  0x9f, 0xac, 0xc0, 0x63, 0xce, 0x3b, 0xbc, 0x3b, 0xde, 0x09, 0xb2, 0x8f, 
  0x3c, 0x88, 0x22, 0xc6, 0x40, 0xba, 0xbf, 0x22, 0x17, 0xbf, 0xd3, 0xd5, 
  0xde, 0xdd, 0xa1, 0x93, 0x4c, 0x2e, 0xdb, 0x9b, 0x11, 0x56, 0xc3, 0xc5, 
  0xd9, 0xd1, 0xfb, 0xa3, 0xdb, 0x70, 0x6a, 0x61, 0xbd, 0x4b, 0xac, 0x61, 
  0x10, 0xfc, 0xfd, 0xe6, 0x06, 0x07, 0x06, 0xfa, 0x11, 0x41, 0x46, 0x40, 
  0xca, 0xe0, 0xdc, 0x00, 0xfd, 0xcb, 0xe5, 0x25, 0xf4, 0x47, 0x3b, 0x34, 
  0x69, 0x39, 0x2b, 0xe6, 0x2c, 0x0d, 0x1a, 0xf6, 0xf7, 0x0a, 0x32, 0x37, 
  0x33, 0x14, 0x23, 0x1e, 0xd2, 0xcf, 0x17, 0x24, 0xea, 0xf2, 0xf2, 0xf0, 
  0xeb, 0x1a, 0xe9, 0x17, 0xc9, 0xff, 0xf3, 0xce, 0xf2, 0xea, 0xf1, 0x00, 
  0x1c, 0x2c, 0xde, 0x39, 0xf6, 0x2f, 0x24, 0x31, 0x1c, 0x53, 0x4b, 0x46, 
  0xca, 0x49, 0x26, 0xe3, 0x1c, 0x26, 0xf3, 0xf5, 0x3c, 0x23, 0x11, 0x05, 
  0xf3, 0x36, 0x40, 0x23, 0x35, 0xf5, 0x05, 0x19, 0xd1, 0x32, 0x0e, 0x22, 
  0x6f, 0x0a, 0xfc, 0x18, 0x1c, 0x7f, 0x30, 0xf5, 0xe4, 0x0d, 0xff, 0xee, 
  0xba, 0x9c, 0xf7, 0xe5, 0xef, 0xe4, 0x05, 0x25, 0x1f, 0x51, 0x17, 0xf9, 
  0x41, 0x0e, 0x10, 0x13, 0xfe, 0xd3, 0xf9, 0xc5, 0xfb, 0x04, 0xdb, 0x03, 
  0x0e, 0x2e, 0xfb, 0xe5, 0x19, 0x06, 0xd0, 0x00, 0x06, 0xfd, 0x08, 0x31, 
  0x00, 0x46, 0xae, 0xd5, 0x32, 0xac, 0x01, 0xf6, 0x37, 0x36, 0x24, 0xe6, 
  0x30, 0x39, 0xeb, 0xfc, 0x0c, 0x97, 0xd9, 0xdc, 0xab, 0xdb, 0xf1, 0xe6, 
  0xf2, 0x15, 0xf6, 0x1b, 0x3b, 0x1f, 0x13, 0xf8, 0x21, 0xf9, 0x21, 0x1b, 
  0x2f, 0x15, 0x1a, 0x22, 0x4a, 0x33, 0xfd, 0x2c, 0x08, 0x3c, 0x17, 0x15, 
  0x48, 0x23, 0x3d, 0x34, 0x44, 0x57, 0xe1, 0x0c, 0x29, 0x1c, 0x3d, 0xfb, 
  0xe7, 0xa3, 0xa6, 0xeb, 0x22, 0xcc, 0x97, 0xc3, 0xee, 0xbd, 0x97, 0x21, 
  0x1d, 0xfc, 0x22, 0x0a, 0x01, 0xb3, 0xe5, 0x0e, 0xcf, 0xfa, 0xe8, 0xff, 
  0x08, 0x1b, 0xef, 0xeb, 0x3a, 0x19, 0xf9, 0xf1, 0xa1, 0xf3, 0x19, 0x0d, 
  0xea, 0x81, 0xda, 0x05, 0x3a, 0xfd, 0xf1, 0x42, 0x2a, 0x6c, 0x26, 0x46, 
  0xe6, 0x62, 0xfc, 0xfd, 0xb6, 0xd5, 0x0a, 0x00, 0x09, 0x47, 0x14, 0x53, 
  0xe3, 0x5e, 0x02, 0x41, 0x17, 0xf8, 0xd6, 0xba, 0x07, 0xcf, 0xef, 0xc5, 
  0xdf, 0xeb, 0x29, 0x27, 0xb2, 0x26, 0x2c, 0xea, 0x33, 0x49, 0xb7, 0x0d, 
  0x48, 0xa4, 0xcb, 0xff, 0x39, 0xfd, 0x3b, 0xf3, 0x14, 0x52, 0x11, 0xfd, 
  0xf6, 0xe9, 0xe0, 0x1d, 0xc8, 0x86, 0x12, 0x2b, 0x0b, 0x3d, 0x31, 0x01, 
  0x1d, 0xfe, 0xd5, 0x02, 0x02, 0x2a, 0x0f, 0x17, 0x31, 0x43, 0x30, 0x0a, 
  0x27, 0x26, 0xe7, 0xee, 0xe6, 0x34, 0x48, 0x21, 0x58, 0xce, 0x49, 0xf5, 
  0x10, 0x3b, 0x10, 0xf2, 0xd5, 0xb9, 0xf4, 0xe4, 0x1b, 0x9a, 0x9d, 0x02, 
  0xc5, 0xe2, 0x8a, 0xfa, 0x2b, 0xb7, 0x90, 0x10, 0x23, 0xfb, 0x32, 0xee, 
  0xca, 0xd5, 0x1b, 0xf0, 0xc2, 0xc4, 0x0d, 0xcd, 0xeb, 0x18, 0xf8, 0xfa, 
  0xfd, 0x11, 0x12, 0xf1, 0xd8, 0xe4, 0xcd, 0xdf, 0xd7, 0x96, 0xc1, 0xd8, 
  0x03, 0x35, 0x0b, 0x34, 0x57, 0x7f, 0x34, 0x67, 0x45, 0x3f, 0x17, 0x02, 
  0xcf, 0xc2, 0xf6, 0x3e, 0xfa, 0xf4, 0x34, 0x60, 0xe3, 0x6e, 0x0c, 0x4b, 
  0x14, 0x0a, 0x0f, 0xc5, 0xf0, 0xef, 0xd4, 0xdf, 0xe5, 0xd8, 0x45, 0x1a, 
  0x33, 0xd3, 0xf9, 0x3f, 0xd5, 0xbc, 0x24, 0xbd, 0x4c, 0x30, 0xdd, 0x97, 
  0x0b, 0x0c, 0x07, 0xf0, 0x1f, 0x4f, 0xce, 0xab, 0xef, 0xf1, 0x2c, 0x2e, 
  0xaf, 0x01, 0xb5, 0x9b, 0xed, 0xe8, 0xe2, 0x1a, 0xac, 0x93, 0xcf, 0xea, 
  0x8f, 0x59, 0xcb, 0x17, 0x1f, 0x43, 0x25, 0xe1, 0xd8, 0xc8, 0xb8, 0xec, 
  0xc2, 0xb9, 0xd9, 0x17, 0x07, 0x1c, 0x44, 0xb1, 0xc6, 0xd6, 0x26, 0xdd, 
  0xbe, 0x52, 0x2a, 0x20, 0x20, 0x2d, 0x52, 0xc9, 0xb6, 0x0c, 0x18, 0xc1, 
  0x0f, 0xd2, 0xad, 0x4e, 0x20, 0xda, 0xfe, 0x53, 0xc3, 0x5a, 0x48, 0x99, 
  0xdb, 0x41, 0x15, 0xf2, 0x29, 0x52, 0x17, 0x5c, 0x17, 0xf6, 0x60, 0x02, 
  0xbb, 0x25, 0x2b, 0x3a, 0x34, 0xbb, 0x1e, 0x91, 0x48, 0x81, 0x95, 0x29, 
  0xb4, 0x2c, 0xae, 0xe6, 0x9f, 0x9c, 0x43, 0x07, 0x06, 0x0b, 0x9f, 0x3e, 
  0x24, 0x1a, 0x9c, 0xc0, 0x58, 0x0f, 0xc4, 0xee, 0x53, 0xd0, 0x08, 0xed, 
  0xf3, 0xe4, 0xdd, 0x3d, 0xfa, 0x13, 0xad, 0xcc, 0x11, 0x3a, 0xf9, 0xe7, 
  0x15, 0xd8, 0x2b, 0x03, 0xe2, 0x25, 0x26, 0x08, 0xfa, 0x06, 0xe7, 0xed, 
  0xd8, 0xe6, 0x04, 0xea, 0xe0, 0x35, 0x4b, 0x2a, 0x44, 0x4f, 0xf8, 0xf6, 
  0x20, 0xee, 0xed, 0xe1, 0xc6, 0xf6, 0x1d, 0x13, 0x20, 0x08, 0xf5, 0x2b, 
  0x07, 0x1a, 0xfa, 0x1a, 0x00, 0xf4, 0x1a, 0x15, 0x34, 0xda, 0x08, 0xe4, 
  0xfb, 0x23, 0x0a, 0xfd, 0xf6, 0xdd, 0x16, 0xfa, 0xf5, 0xf7, 0x04, 0x06, 
  0x25, 0x1e, 0x60, 0x11, 0x31, 0x4b, 0x56, 0x24, 0xdf, 0x2c, 0x4b, 0xff, 
  0x16, 0x3a, 0x24, 0xdf, 0x0d, 0x41, 0x24, 0x11, 0x14, 0x12, 0x13, 0xf3, 
  0x01, 0x2d, 0x32, 0xf2, 0xf5, 0xfb, 0x1b, 0xf8, 0x59, 0x17, 0x33, 0x0a, 
  0xf8, 0x7f, 0x37, 0x00, 0xeb, 0x17, 0x01, 0x00, 0xc9, 0xd9, 0xe8, 0xdc, 
  0xfe, 0xd2, 0xe9, 0x24, 0x37, 0x22, 0xfc, 0x0b, 0x11, 0xd9, 0xf8, 0xc2, 
  0xfc, 0xd9, 0xfc, 0xf6, 0x27, 0xfe, 0x0d, 0x31, 0x28, 0xf0, 0xec, 0x06, 
  0x30, 0x12, 0x13, 0xff, 0x95, 0xf1, 0x83, 0x74, 0xfa, 0x9b, 0x89, 0x3c, 
  0xd1, 0xed, 0xc4, 0x50, 0x6e, 0xd6, 0xcd, 0xc5, 0x47, 0x37, 0xc6, 0xed, 
  0xcd, 0x70, 0xe5, 0x20, 0x41, 0x84, 0xda, 0x8f, 0xeb, 0xde, 0xf2, 0x7d, 
  0xf8, 0x53, 0x98, 0x19, 0x37, 0x53, 0xee, 0xf1, 0x2e, 0x03, 0x60, 0x77, 
  0x9a, 0x0b, 0x0d, 0x3a, 0xd8, 0xfb, 0x84, 0x34, 0x75, 0x74, 0xfd, 0x14, 
  0xa3, 0xf6, 0xb6, 0x2c, 0xf7, 0x06, 0xdd, 0x77, 0x82, 0x46, 0xd6, 0x33, 
  0x40, 0x26, 0x70, 0x01, 0xc2, 0xa8, 0xa3, 0xa7, 0x31, 0xee, 0x39, 0x46, 
  0x15, 0x06, 0x20, 0x41, 0x5d, 0xa5, 0x71, 0x0b, 0xf4, 0x6e, 0xbc, 0x5a, 
  0x2f, 0xf4, 0xb7, 0x16, 0x97, 0xb8, 0xe0, 0x6e, 0x49, 0xb9, 0x4e, 0x9a, 
  0x19, 0x95, 0x81, 0x70, 0xb4, 0x63, 0xdf, 0x94, 0xa1, 0x67, 0x8e, 0xff, 
  0x9a, 0xc5, 0x9f, 0xcb, 0x8c, 0xd4, 0xdc, 0xd5, 0x4a, 0xd7, 0x32, 0xb2, 
  0xfc, 0x5c, 0xa9, 0x81, 0x11, 0x91, 0x64, 0x51, 0x22, 0x4e, 0x9d, 0xb7, 
  0xc3, 0xaa, 0x63, 0xe9, 0x48, 0x68, 0xc2, 0x8c, 0xa5, 0xab, 0x42, 0x16, 
  0xcb, 0xb7, 0x01, 0x64, 0x86, 0x3e, 0x8e, 0x68, 0xe6, 0x89, 0x11, 0x44, 
  0x22, 0x17, 0x95, 0xc6, 0x17, 0xb8, 0x1d, 0x6b, 0x12, 0x9d, 0xef, 0xc2, 
  0x0a, 0x42, 0x38, 0xd1, 0xc3, 0xaf, 0x92, 0xbc, 0x24, 0x2f, 0x15, 0x05, 
  0xee, 0xee, 0x8a, 0xf3, 0x56, 0xad, 0xf6, 0xf9, 0xb6, 0xe6, 0x62, 0xa8, 
  0x1e, 0x52, 0xd7, 0xdd, 0x61, 0xc5, 0x81, 0xcb, 0x4b, 0x4d, 0x27, 0x5c, 
  0xad, 0xf7, 0xa2, 0xff, 0x3d, 0x86, 0xdf, 0xac, 0x45, 0xc2, 0x32, 0x22, 
  0x43, 0xdc, 0x45, 0xc2, 0x9a, 0xde, 0xd2, 0xd2, 0x34, 0xd3, 0x9d, 0x19, 
  0x2f, 0x04, 0x57, 0xc0, 0x60, 0xdb, 0xa5, 0x47, 0x5b, 0x31, 0xbf, 0x06, 
  0xdd, 0xa4, 0x98, 0xca, 0x2d, 0xf8, 0xdf, 0x84, 0x36, 0x0c, 0xba, 0xdd, 
  0x22, 0x0b, 0xd8, 0xed, 0x52, 0x93, 0x18, 0x63, 0xdb, 0x2a, 0xea, 0x6c, 
  0xa3, 0x6f, 0xb1, 0x3d, 0x03, 0x19, 0x1f, 0x85, 0xd8, 0x47, 0xf7, 0xff, 
  0x07, 0x3c, 0xdd, 0x00, 0x48, 0xe3, 0xf7, 0xe4, 0x30, 0x00, 0xe0, 0xc3, 
  0x3e, 0x7f, 0xf1, 0xc8, 0x47, 0x16, 0xc4, 0xf3, 0xe1, 0xaa, 0xf0, 0xd4, 
  0xcd, 0xd7, 0xcf, 0xce, 0x6c, 0x54, 0x12, 0x0e, 0xe8, 0x01, 0x15, 0xf2, 
  0xfb, 0xd1, 0x1f, 0x03, 0x14, 0x1d, 0xf9, 0xed, 0x20, 0xd4, 0xf1, 0xe9, 
  0x68, 0xbe, 0xf3, 0x0d, 0x49, 0x2f, 0x04, 0x0d, 0xf1, 0x15, 0x12, 0xe7, 
  0x2e, 0xb0, 0xcf, 0x09, 0x2b, 0x04, 0xce, 0x03, 0xf5, 0x02, 0xd6, 0x22, 
  0xfb, 0x03, 0xec, 0xf2, 0x03, 0xee, 0xd8, 0xfa, 0x14, 0xf5, 0x14, 0x1a, 
  0xd0, 0xd3, 0xfc, 0x12, 0x23, 0xeb, 0xe8, 0xda, 0xd9, 0x66, 0xf0, 0xd1, 
  0x00, 0xa8, 0xc5, 0x12, 0x22, 0x2c, 0xd9, 0x30, 0x37, 0x3d, 0x23, 0x05, 
  0x48, 0x3b, 0xe6, 0x0b, 0xe4, 0xcd, 0x1f, 0xea, 0xc6, 0x1a, 0xfa, 0x14, 
  0xe3, 0x44, 0x0d, 0x1f, 0xe8, 0xee, 0xe8, 0x04, 0x02, 0xe7, 0x26, 0xe7, 
  0x16, 0x21, 0x16, 0x27, 0xb7, 0x0c, 0xa4, 0x49, 0xfb, 0xbc, 0x51, 0xc6, 
  0x05, 0x68, 0x66, 0x97, 0x5d, 0x24, 0x66, 0x02, 0x81, 0x2e, 0x5a, 0x35, 
  0x89, 0x08, 0xfc, 0xc6, 0xf0, 0x44, 0x1d, 0xd4, 0x94, 0x42, 0xca, 0xb5, 
  0x1b, 0x1b, 0x2a, 0x42, 0x69, 0x6a, 0x4d, 0x9c, 0xd8, 0xbf, 0xaf, 0xf1, 
  0xeb, 0xec, 0x46, 0xd2, 0x46, 0x19, 0x16, 0x9e, 0x0f, 0x66, 0xa7, 0xc8, 
  0x09, 0x88, 0x94, 0xcf, 0x2f, 0x24, 0xff, 0x32, 0x5f, 0x2c, 0xdc, 0xd2, 
  0x12, 0x8d, 0x31, 0xfa, 0x0d, 0xd9, 0x5b, 0x1f, 0x9c, 0xc0, 0x72, 0x38, 
  0x47, 0x40, 0x29, 0x47, 0xf1, 0xd8, 0x0e, 0x59, 0x8a, 0xeb, 0x83, 0xbe, 
  0x48, 0xcd, 0x06, 0x2b, 0x27, 0xc2, 0x3e, 0x5f, 0xc8, 0x00, 0x3c, 0x4b, 
  0xee, 0xc0, 0x03, 0x61, 0x2e, 0x90, 0x93, 0x00, 0x13, 0x2f, 0x97, 0xbf, 
  0xb9, 0xfa, 0x43, 0xd9, 0xd6, 0x8e, 0x58, 0x2c, 0x8f, 0x56, 0xc5, 0x41, 
  0xc0, 0x4f, 0x1b, 0x3c, 0xcb, 0xa0, 0x47, 0x45, 0xa3, 0x14, 0x0e, 0xb2, 
  0x17, 0xe1, 0x09, 0x26, 0xc5, 0xcb, 0xe0, 0xe5, 0xfd, 0xea, 0xbf, 0xec, 
  0x04, 0x38, 0x4f, 0x08, 0xa5, 0xe8, 0x2a, 0xe9, 0x8e, 0x83, 0xc7, 0xd2, 
  0xdf, 0xed, 0xe6, 0x11, 0xed, 0x35, 0x07, 0x42, 0xbe, 0x23, 0xe4, 0x10, 
  0xec, 0x51, 0xe3, 0xea, 0x03, 0x53, 0x22, 0xd6, 0x0b, 0xf7, 0x2b, 0x33, 
  0x13, 0x5d, 0x5c, 0x0e, 0xe1, 0xe6, 0x23, 0xea, 0x2a, 0x3d, 0x25, 0x0b, 
  0xfe, 0xe9, 0x0f, 0x0b, 0x0a, 0xa5, 0xf7, 0x18, 0xe4, 0x81, 0x81, 0xd0, 
  0x03, 0xe9, 0xd1, 0xe5, 0x3d, 0x3e, 0x26, 0x38, 0xef, 0xa1, 0x06, 0x27, 
  0xd4, 0xaf, 0xa4, 0x25, 0x17, 0xdd, 0xef, 0xe2, 0x1e, 0xed, 0xf0, 0x30, 
  0x8d, 0x8d, 0x30, 0x0a, 0xc8, 0xc7, 0xca, 0x32, 0xce, 0x0f, 0xf8, 0x0b, 
  0x30, 0x13, 0x06, 0x2d, 0xbf, 0xef, 0x43, 0xe4, 0xde, 0xe0, 0x4c, 0x2d, 
  0xe1, 0x23, 0x56, 0x3f, 0x30, 0x04, 0x1e, 0x26, 0x0d, 0xe6, 0xf3, 0xa6, 
  0xc0, 0xc6, 0xe1, 0x12, 0x0b, 0x17, 0xfc, 0x21, 0x2c, 0x08, 0xf2, 0x22, 
  0x08, 0xff, 0x16, 0x1f, 0xd3, 0x14, 0x01, 0x1a, 0xe8, 0xed, 0xf3, 0x16, 
  0xef, 0xc7, 0x1d, 0x11, 0x14, 0x4e, 0x3a, 0x24, 0x44, 0x56, 0xff, 0x19, 
  0x0a, 0xec, 0x14, 0xde, 0xfc, 0xf2, 0xfc, 0xf8, 0x07, 0xdf, 0x0f, 0xee, 
  0xf0, 0x08, 0xf2, 0x1e, 0xda, 0x0c, 0x1d, 0x03, 0x1d, 0xec, 0x11, 0xed, 
  0xea, 0x1e, 0xf9, 0xf7, 0xda, 0xf8, 0x08, 0x0b, 0x00, 0x2c, 0x1f, 0x15, 
  0xfa, 0x35, 0x41, 0xfb, 0x06, 0x41, 0x34, 0x00, 0xe8, 0x39, 0x55, 0xee, 
  0xf3, 0x25, 0x0e, 0xf3, 0x13, 0x34, 0x03, 0x07, 0x20, 0xfb, 0x34, 0x22, 
  0xf7, 0x0d, 0xf2, 0x16, 0xe4, 0xf0, 0xfd, 0x0a, 0x2c, 0x22, 0x16, 0x18, 
  0x05, 0x7f, 0x4c, 0x17, 0xe4, 0x18, 0x04, 0xf4, 0xde, 0xcb, 0xfc, 0xcc, 
  0x0f, 0xf5, 0x04, 0x21, 0x11, 0x3e, 0xd6, 0xfb, 0x04, 0xd4, 0xf4, 0xdf, 
  0x06, 0xce, 0x0c, 0xea, 0xe7, 0xec, 0xe9, 0x35, 0xf1, 0xe3, 0x18, 0x21, 
  0x06, 0xf0, 0xff, 0x0a, 0x45, 0x11, 0xb7, 0x49, 0xf0, 0x67, 0x5b, 0x66, 
  0x6f, 0x88, 0x10, 0xdd, 0x83, 0x1c, 0xc3, 0x1b, 0xef, 0x84, 0x86, 0xac, 
  0x6e, 0x6f, 0xad, 0x61, 0x22, 0x75, 0xb5, 0xec, 0xdc, 0x6a, 0x6f, 0x9a, 
  0x73, 0x1c, 0xbc, 0x30, 0xb2, 0xbe, 0xfc, 0xf5, 0xd7, 0x58, 0x9e, 0xb4, 
  0x0b, 0x38, 0xbf, 0x78, 0xaa, 0xd4, 0x4c, 0xd3, 0x4a, 0x27, 0xed, 0x20, 
  0xd0, 0xd4, 0xeb, 0x7d, 0x4c, 0xfc, 0x29, 0x69, 0x29, 0x3b, 0x68, 0xaa, 
  0xdc, 0x0a, 0x52, 0x3d, 0xe6, 0x1c, 0xd8, 0x1f, 0x17, 0xfd, 0xcf, 0xe9, 
  0xa3, 0xe5, 0x90, 0xdf, 0xd9, 0x01, 0x65, 0x3a, 0x6c, 0x93, 0xba, 0x2c, 
  0xff, 0xf1, 0x8b, 0x54, 0x76, 0xf1, 0xb6, 0x70, 0x8b, 0xaa, 0xc5, 0x69, 
  0x88, 0xe7, 0x02, 0x07, 0x9d, 0x87, 0x12, 0x26, 0x13, 0x17, 0x9d, 0xd3, 
  0x17, 0x0d, 0x4a, 0xfd, 0x93, 0xbd, 0x10, 0xb0, 0x29, 0xa2, 0x04, 0xd4, 
  0xd5, 0xcd, 0x93, 0xd3, 0xa9, 0x1e, 0x61, 0xfb, 0xb5, 0xb8, 0x81, 0x87, 
  0x05, 0x93, 0x94, 0xa0, 0x88, 0xd6, 0x94, 0x43, 0xed, 0x95, 0xa7, 0xff, 
  0x85, 0xcf, 0xda, 0x8d, 0xc5, 0xde, 0xba, 0xda, 0x34, 0x4b, 0x02, 0x9b, 
  0x9b, 0xdb, 0xfd, 0xb6, 0xc2, 0xbc, 0x39, 0xf7, 0x95, 0xd5, 0xd5, 0x18, 
  0xa8, 0xde, 0xf6, 0x3b, 0x2d, 0xdb, 0xb7, 0x94, 0x0c, 0xa4, 0x2f, 0xfe, 
  0x8c, 0x8b, 0x96, 0xcc, 0xbf, 0x21, 0x26, 0xff, 0xff, 0x11, 0xa3, 0x3c, 
  0xfe, 0xf9, 0xab, 0x11, 0x35, 0x93, 0x21, 0x9e, 0xb5, 0x9d, 0x25, 0xc4, 
  0x4b, 0xa3, 0x9f, 0xcc, 0x4a, 0xfc, 0x27, 0xdd, 0x2b, 0xa9, 0x2c, 0xb3, 
  0xe5, 0xa9, 0x8c, 0x4b, 0x92, 0x8e, 0x2c, 0x27, 0xf3, 0x33, 0x9b, 0xa4, 
  0xd8, 0x3f, 0x96, 0xe8, 0x41, 0xa1, 0x0c, 0xe0, 0x1c, 0xc8, 0x3d, 0x8f, 
  0x17, 0x29, 0x9f, 0x93, 0x0b, 0x26, 0x06, 0x08, 0xb0, 0x81, 0x40, 0x32, 
  0x29, 0xcc, 0xb5, 0xc7, 0xca, 0x0a, 0x99, 0xc7, 0x1f, 0x66, 0x37, 0xd3, 
  0x07, 0x6e, 0xd0, 0xf8, 0xa7, 0x43, 0xb8, 0xaf, 0x09, 0x3c, 0x1b, 0xf9, 
  0x1b, 0x17, 0x36, 0xff, 0xe0, 0x2c, 0x2d, 0x2f, 0x21, 0xe6, 0xfa, 0x32, 
  0xee, 0x09, 0x33, 0xf4, 0x03, 0x26, 0x04, 0x20, 0x71, 0x62, 0x32, 0x0f, 
  0xfd, 0x1f, 0x0c, 0x06, 0xbe, 0xf8, 0x2d, 0xf8, 0xf5, 0x04, 0xf6, 0x3e, 
  0xeb, 0x04, 0xf5, 0x2e, 0xea, 0xc9, 0x29, 0x05, 0x10, 0x18, 0x0d, 0x10, 
  0xdc, 0xed, 0xd3, 0x09, 0xcf, 0xdf, 0x2d, 0xe7, 0x03, 0x2b, 0x05, 0x18, 
  0x28, 0x6b, 0x57, 0x14, 0x19, 0x3d, 0x40, 0x50, 0x04, 0x4d, 0x70, 0x12, 
  0x08, 0x1a, 0x20, 0x04, 0x2c, 0x4d, 0x01, 0xe9, 0xfb, 0x32, 0x08, 0xe5, 
  0xf8, 0x2c, 0x0d, 0xea, 0x1d, 0x0c, 0xe4, 0x1d, 0x2b, 0xf7, 0x05, 0x30, 
  0x02, 0x7f, 0x2b, 0x02, 0xde, 0xed, 0x23, 0x0a, 0xb6, 0xd8, 0xf1, 0xf2, 
  0x1b, 0xb2, 0xe0, 0x00, 0x3f, 0x43, 0xda, 0x13, 0x4a, 0xef, 0xc4, 0xbd, 
  0x03, 0x9d, 0x10, 0xf0, 0xe9, 0xf8, 0xff, 0x32, 0x1c, 0xec, 0x21, 0x06, 
  0x1c, 0xf7, 0xf8, 0xe3, 0x43, 0x17, 0xe2, 0x27, 0x2a, 0xd1, 0x1d, 0x3a, 
  0x02, 0x0d, 0x2d, 0x32, 0x22, 0xd3, 0x07, 0x0c, 0xcd, 0xed, 0x17, 0xdf, 
  0xd4, 0x69, 0x22, 0x0d, 0x30, 0x25, 0x2b, 0x0e, 0xf9, 0x2a, 0x13, 0xee, 
  0x00, 0x0b, 0x17, 0xfb, 0x29, 0xf1, 0x0e, 0x12, 0xfa, 0x0b, 0xdf, 0x20, 
  0xff, 0xf2, 0xf0, 0xea, 0xe5, 0x2d, 0xfe, 0xea, 0xbf, 0x14, 0xd0, 0xfc, 
  0x18, 0xe3, 0x1f, 0x08, 0x0d, 0x3a, 0x2b, 0x02, 0x1f, 0x5b, 0x4e, 0x1f, 
  0x36, 0x3f, 0x3d, 0x33, 0xf2, 0x66, 0x2b, 0x1b, 0x09, 0x1c, 0x22, 0xe7, 
  0x42, 0x37, 0x36, 0xfa, 0xf4, 0x00, 0x09, 0x04, 0x12, 0x11, 0x31, 0x08, 
  0x0f, 0x13, 0x07, 0x2d, 0x5e, 0xf5, 0x36, 0x33, 0x0b, 0x7f, 0x5b, 0x02, 
  0xee, 0x16, 0x35, 0xe7, 0x9f, 0xc8, 0xee, 0xe1, 0x11, 0xcd, 0xed, 0x36, 
  0x30, 0x42, 0xd1, 0xf0, 0x3b, 0xfb, 0xea, 0xf0, 0x34, 0xa8, 0x10, 0xdf, 
  0x21, 0x01, 0x1a, 0x40, 0x10, 0x07, 0x1a, 0x1a, 0x27, 0x25, 0xdf, 0x02, 
  0xb4, 0x1c, 0xcb, 0x27, 0xd5, 0x3c, 0xa0, 0xa7, 0xc8, 0xd0, 0x9c, 0x9a, 
  0xbf, 0xa9, 0xa2, 0x94, 0x2d, 0xb1, 0xad, 0x7e, 0x9e, 0x64, 0x0f, 0xfe, 
  0x1b, 0x02, 0xfe, 0xfa, 0xcc, 0xe7, 0xb6, 0xe9, 0x36, 0xbb, 0x37, 0x06, 
  0xca, 0x7b, 0xa9, 0x65, 0xf4, 0xfd, 0x81, 0x79, 0x20, 0x6e, 0x4f, 0x62, 
  0xdd, 0xbf, 0xc0, 0x72, 0x96, 0xb6, 0xd6, 0x4f, 0xfb, 0xf3, 0x95, 0xe2, 
  0xa4, 0x85, 0xb4, 0x94, 0x1e, 0x69, 0xca, 0x5c, 0x87, 0x31, 0x8f, 0xfa, 
  0x35, 0x05, 0x86, 0x17, 0xc4, 0x77, 0x27, 0x39, 0x9c, 0x23, 0x30, 0xd3, 
  0xb1, 0x1e, 0x60, 0x84, 0xc7, 0x74, 0xe2, 0xe2, 0xc6, 0x00, 0x6f, 0x93, 
  0x9d, 0xd0, 0xe8, 0x28, 0xc9, 0x6f, 0x0b, 0x9e, 0x48, 0x8f, 0xd2, 0xf4, 
  0xcc, 0x59, 0x79, 0xba, 0xdc, 0x23, 0x46, 0xa1, 0xc9, 0xe7, 0xd2, 0xe4, 
  0x2b, 0x7b, 0x48, 0x2d, 0x24, 0x4f, 0xf9, 0xf9, 0x31, 0x68, 0xf8, 0x49, 
  0x89, 0x35, 0x53, 0x31, 0xe0, 0x4a, 0x50, 0x9e, 0x0f, 0xc3, 0xe4, 0x33, 
  0xc9, 0xa8, 0xd6, 0x36, 0xd6, 0xc8, 0xcb, 0xf1, 0xe4, 0x08, 0x23, 0x17, 
  0xb4, 0xcc, 0x04, 0x15, 0x93, 0x81, 0x19, 0xf2, 0xb0, 0xe9, 0xe9, 0x33, 
  0x0a, 0x3e, 0xff, 0x30, 0xc7, 0x09, 0x15, 0x11, 0xf6, 0x18, 0x1d, 0x10, 
  0x19, 0x40, 0x30, 0x14, 0x39, 0x22, 0x08, 0xf3, 0x18, 0x49, 0x21, 0x14, 
  0xf6, 0x0a, 0x40, 0x02, 0xfb, 0x24, 0xfc, 0x1f, 0x34, 0xfa, 0x06, 0x24, 
  0xde, 0xbd, 0xb2, 0xf0, 0xfc, 0xd0, 0x93, 0xc2, 0x1b, 0xc2, 0xc3, 0x18, 
  0x05, 0xe0, 0x07, 0x2c, 0xda, 0xcc, 0xdd, 0x07, 0xbe, 0xd0, 0xce, 0xfc, 
  0x22, 0x0c, 0xf2, 0x1e, 0x31, 0x2d, 0x0d, 0x25, 0x92, 0x9b, 0x1e, 0x25, 
  0xd6, 0x9b, 0xcf, 0x27, 0xdf, 0x02, 0x24, 0x07, 0x0d, 0x2a, 0xea, 0xe3, 
  0xc7, 0xf0, 0x48, 0x03, 0xc8, 0x26, 0x29, 0x38, 0x1d, 0x20, 0x45, 0x46, 
  0xff, 0x52, 0x15, 0x13, 0x0a, 0xdd, 0x01, 0xbc, 0x0e, 0xdf, 0xec, 0xec, 
  0xf6, 0x16, 0x20, 0x37, 0x10, 0x15, 0x20, 0x0c, 0x17, 0xe1, 0x48, 0xff, 
  0x0a, 0x24, 0x3b, 0x0e, 0x09, 0xff, 0x04, 0x0b, 0xdf, 0x11, 0x12, 0xff, 
  0x25, 0x40, 0x39, 0x2a, 0x31, 0x38, 0x1a, 0x1b, 0x02, 0x20, 0xed, 0x1b, 
  0xde, 0xf6, 0xf8, 0xf9, 0x03, 0xd6, 0xee, 0xfb, 0xe7, 0xfa, 0xe6, 0x04, 
  0xdf, 0xf0, 0x13, 0x09, 0x0f, 0x05, 0x03, 0x27, 0xe7, 0x1a, 0x05, 0x01, 
  0xf3, 0xd8, 0xff, 0xec, 0x26, 0x30, 0x07, 0xfa, 0x2d, 0x4b, 0x42, 0x23, 
  0x1a, 0x4d, 0x57, 0x26, 0x04, 0x3d, 0x31, 0x14, 0xe6, 0x3c, 0x26, 0xe8, 
  0x34, 0x43, 0xf3, 0x25, 0x39, 0x11, 0x05, 0x18, 0x30, 0x25, 0x12, 0xfe, 
  0xf8, 0x02, 0xf4, 0x18, 0x2d, 0x23, 0x2e, 0x03, 0x04, 0x7f, 0x4c, 0xfb, 
  0x03, 0x10, 0xff, 0xf1, 0xd3, 0xb7, 0x1b, 0xe1, 0x04, 0xe8, 0xd8, 0x17, 
  0x4f, 0x23, 0xd4, 0x00, 0x17, 0xd7, 0xe0, 0xdb, 0x25, 0xd5, 0xfb, 0xd3, 
  0x16, 0x0f, 0xfe, 0x12, 0x19, 0xee, 0x09, 0xf4, 0x00, 0xf4, 0xe2, 0xd4, 
  0xec, 0x12, 0xfa, 0x1c, 0xff, 0x35, 0xdb, 0xde, 0x36, 0xc5, 0xe4, 0xfd, 
  0x06, 0x1e, 0xfe, 0x0d, 0x3b, 0x27, 0x08, 0xf5, 0x34, 0xba, 0xf2, 0xeb, 
  0xe1, 0xc7, 0xfc, 0x27, 0xf2, 0x11, 0x19, 0x2d, 0x2e, 0x23, 0x02, 0x04, 
  0xd7, 0x2d, 0x06, 0xeb, 0x1d, 0x19, 0xf0, 0x08, 0x3a, 0x34, 0xf7, 0x00, 
  0x02, 0x0e, 0x33, 0xf4, 0x42, 0xfc, 0x2e, 0x00, 0x1c, 0x46, 0x1e, 0x04, 
  0xf0, 0xe0, 0x25, 0x0d, 0xeb, 0xc7, 0xce, 0xda, 0xe0, 0xd5, 0x97, 0xbf, 
  0x2b, 0xb7, 0x9d, 0xd9, 0x1c, 0xd6, 0x14, 0x35, 0xe0, 0xd9, 0x15, 0x02, 
  0x03, 0xcb, 0xd3, 0x23, 0x00, 0x17, 0xca, 0xf8, 0xf1, 0x19, 0xf9, 0xec, 
  0xc8, 0x03, 0x0f, 0xe9, 0x05, 0x81, 0xce, 0xe8, 0xf5, 0x07, 0x19, 0x03, 
  0x4d, 0x4f, 0x0f, 0x2c, 0x0f, 0x35, 0x09, 0x20, 0xce, 0xce, 0x36, 0x09, 
  0xfa, 0x22, 0x26, 0x1e, 0x05, 0x33, 0x36, 0x08, 0xe4, 0xf7, 0xd3, 0xc2, 
  0x02, 0x12, 0x00, 0xf7, 0x05, 0xdb, 0x1c, 0x20, 0xe2, 0xd7, 0x1b, 0x8e, 
  0xf2, 0x35, 0x75, 0x0e, 0xd3, 0xee, 0x96, 0x4b, 0x9e, 0xac, 0xef, 0xc5, 
  0x29, 0x13, 0x62, 0xc6, 0x4c, 0x9c, 0x91, 0xe2, 0xe5, 0xcc, 0x25, 0xc4, 
  0x96, 0xa4, 0x46, 0x02, 0x9d, 0x45, 0xdc, 0x40, 0x02, 0x5a, 0x2f, 0xa8, 
  0xa9, 0x61, 0x19, 0xef, 0x0e, 0x22, 0x11, 0x44, 0x5f, 0xb4, 0x32, 0x28, 
  0x1a, 0x95, 0x31, 0x01, 0x82, 0x37, 0x01, 0xfc, 0x0b, 0x98, 0xe6, 0xc7, 
  0xff, 0xea, 0x81, 0x39, 0xa7, 0x1a, 0x8d, 0x16, 0xd3, 0x85, 0x90, 0x61, 
  0x29, 0xe1, 0x84, 0x5f, 0x4d, 0x37, 0xe3, 0xca, 0x11, 0x18, 0x3e, 0xcd, 
  0x0b, 0x2d, 0xdb, 0x97, 0x2b, 0x0f, 0xc5, 0xaf, 0x63, 0x59, 0x67, 0x55, 
  0x40, 0xe6, 0xd6, 0x5d, 0xd8, 0xab, 0xc4, 0x3e, 0xe1, 0x3c, 0xb0, 0x4b, 
  0x49, 0xc2, 0xc2, 0x3b, 0xf8, 0xbe, 0x9a, 0xb2, 0x49, 0xe4, 0x9d, 0x39, 
  0xc9, 0xcc, 0x74, 0x6d, 0x9d, 0xfb, 0x29, 0xf5, 0x1c, 0x25, 0xe2, 0x11, 
  0x45, 0x64, 0xa2, 0x8e, 0x04, 0x02, 0xf3, 0xf0, 0x06, 0x3b, 0x93, 0xf1, 
  0x35, 0xcc, 0xf3, 0x07, 0xee, 0x05, 0x10, 0xf5, 0x2b, 0x42, 0xda, 0xf5, 
  0x2a, 0xb8, 0xd2, 0x09, 0xc5, 0xba, 0xfc, 0x33, 0xd6, 0x21, 0x38, 0x28, 
  0x18, 0x33, 0x05, 0x29, 0xf9, 0x0c, 0xf7, 0xeb, 0x09, 0x16, 0xe1, 0x23, 
  0x4b, 0x3d, 0xcd, 0xe8, 0xeb, 0x14, 0x02, 0xdb, 0x4a, 0xd8, 0x33, 0xf8, 
  0x12, 0x49, 0x2a, 0x1d, 0x20, 0xef, 0x34, 0xee, 0x04, 0x9f, 0xe3, 0xd4, 
  0xda, 0xae, 0xde, 0x02, 0xf4, 0xe3, 0xaa, 0xf8, 0xfe, 0xb7, 0x0c, 0x28, 
  0xe4, 0xc9, 0x08, 0x05, 0xe8, 0xde, 0xed, 0x15, 0xea, 0xeb, 0xf3, 0x26, 
  0x28, 0xee, 0xfe, 0x20, 0xe4, 0x13, 0x07, 0xee, 0x10, 0xab, 0xdc, 0x26, 
  0xfe, 0x05, 0xf4, 0x27, 0x4c, 0x7f, 0xe9, 0x43, 0xe9, 0x38, 0xf1, 0xf1, 
  0xc3, 0xeb, 0x1c, 0x2e, 0xe2, 0x2b, 0x2a, 0x54, 0xdd, 0x5c, 0x1b, 0x3b, 
  0xf5, 0x16, 0x14, 0xa5, 0xdc, 0xcb, 0xd8, 0xf6, 0xc9, 0xe0, 0xf8, 0x4f, 
  0x36, 0x17, 0x0d, 0xe7, 0xef, 0x1a, 0x2e, 0xe8, 0xf7, 0x54, 0x10, 0x3b, 
  0x1d, 0x01, 0x0a, 0x28, 0x08, 0xee, 0x03, 0xfc, 0x0d, 0x63, 0x49, 0x2a, 
  0x45, 0x6f, 0x32, 0xea, 0xf5, 0xf7, 0x0e, 0x01, 0xbe, 0xb6, 0xfa, 0x35, 
  0x26, 0x0a, 0xe9, 0x26, 0xe5, 0xfc, 0x00, 0x00, 0xef, 0xfc, 0x0c, 0xed, 
  0x1c, 0xd2, 0x0e, 0x13, 0xfb, 0x2b, 0x1d, 0xfc, 0xec, 0x08, 0x1a, 0x29, 
  0xff, 0x35, 0xdc, 0xfa, 0x35, 0x60, 0x78, 0x45, 0x0f, 0x40, 0x7f, 0x3d, 
  0xfd, 0x72, 0x7f, 0x2d, 0xf5, 0x48, 0x06, 0xd8, 0x15, 0x56, 0xfd, 0x31, 
  0x1a, 0x50, 0x1e, 0x1d, 0x31, 0xf9, 0x3c, 0x1f, 0xea, 0x28, 0xee, 0x30, 
  0x49, 0x13, 0xf7, 0x2f, 0x22, 0x61, 0x3c, 0x28, 0xf6, 0x04, 0xf1, 0x0f, 
  0xc0, 0xec, 0x00, 0x26, 0x0c, 0xdb, 0x13, 0x0e, 0x35, 0x15, 0xcb, 0xf2, 
  0x31, 0xdc, 0xed, 0xc7, 0xfd, 0x9b, 0xe1, 0xe3, 0x29, 0x0e, 0xfc, 0x63, 
  0x09, 0x21, 0x1c, 0x23, 0x24, 0x0c, 0xf4, 0xd6, 0xdf, 0xf4, 0x65, 0x29, 
  0x13, 0x5d, 0xaf, 0x67, 0x19, 0x61, 0x52, 0xa6, 0x4b, 0xd0, 0xcb, 0x33, 
  0xe5, 0xde, 0x97, 0x61, 0x0b, 0x2c, 0xea, 0x38, 0xa6, 0x00, 0x30, 0xa0, 
  0xf0, 0xc8, 0xcc, 0xfc, 0xf6, 0xac, 0x02, 0xe9, 0x30, 0xc8, 0x0c, 0xa3, 
  0x96, 0x1f, 0xfa, 0x21, 0x92, 0x6a, 0xfc, 0x5c, 0x4e, 0x22, 0x44, 0x60, 
  0xaf, 0x06, 0xd2, 0x1b, 0x50, 0xad, 0x42, 0x85, 0xbe, 0xcf, 0x8d, 0xa0, 
  0x29, 0x61, 0x9d, 0xd1, 0xdd, 0x9b, 0x65, 0xab, 0x1c, 0x81, 0xb2, 0x5e, 
  0x9a, 0x58, 0xa1, 0x60, 0x16, 0xd1, 0xd8, 0x30, 0x67, 0x07, 0x8c, 0xfe, 
  0x4b, 0x98, 0x30, 0xa8, 0xaa, 0x96, 0x4f, 0xe1, 0x46, 0x1e, 0xbf, 0x0f, 
  0xbd, 0x6f, 0x5b, 0xab, 0xcd, 0xc5, 0x8c, 0xc7, 0x65, 0x91, 0xa6, 0xb6, 
  0xf8, 0x0c, 0x1f, 0xc2, 0x8c, 0xf3, 0x14, 0x20, 0x5c, 0xac, 0x4a, 0x4c, 
  0x07, 0x0f, 0x35, 0x48, 0xb7, 0xcb, 0xd4, 0x38, 0xc6, 0xd9, 0xd6, 0x2b, 
  0x1d, 0x4e, 0x8b, 0xd0, 0xe7, 0x25, 0xf6, 0xe3, 0x30, 0x29, 0x9e, 0x0a, 
  0x23, 0xe5, 0xe3, 0x24, 0x3d, 0x26, 0xfb, 0x0d, 0x6d, 0x31, 0xcd, 0xbc, 
  0x75, 0xcf, 0xf8, 0x02, 0xb4, 0x89, 0xef, 0xc7, 0xd0, 0xd6, 0xb6, 0xcc, 
  0x4b, 0x72, 0xce, 0xf0, 0x0c, 0x2b, 0xf7, 0xe0, 0x24, 0xe7, 0xc7, 0xc4, 
  0x3f, 0x08, 0xcf, 0xd7, 0x2c, 0xd0, 0x32, 0x17, 0x5f, 0xe3, 0x38, 0x22, 
  0x69, 0x58, 0x0e, 0x13, 0x1e, 0xf2, 0x0a, 0x10, 0xdd, 0xc2, 0xe3, 0x03, 
  0x04, 0xef, 0xe9, 0x02, 0x2a, 0xa3, 0xdf, 0x0f, 0xf0, 0xa6, 0xc9, 0xec, 
  0xda, 0xa9, 0xec, 0xd9, 0xf2, 0xec, 0xb6, 0x22, 0xc8, 0x04, 0xb9, 0xee, 
  0x30, 0x02, 0xdb, 0x2f, 0xb1, 0x46, 0xf3, 0xb8, 0x26, 0xa5, 0xb9, 0x05, 
  0x1f, 0x12, 0xee, 0x00, 0x75, 0x3f, 0x4e, 0x58, 0x4e, 0x53, 0x41, 0x10, 
  0x04, 0xb5, 0x40, 0x2d, 0x0c, 0x04, 0x24, 0x32, 0xed, 0x7f, 0x4e, 0x01, 
  0xce, 0xeb, 0xfb, 0x10, 0xed, 0xd2, 0xd1, 0xde, 0xde, 0x05, 0xe6, 0x10, 
  0x0f, 0xbd, 0xad, 0x57, 0xe7, 0xb5, 0xc6, 0xd0, 0x96, 0xd1, 0xd1, 0x13, 
  0x23, 0x71, 0x71, 0xc0, 0x46, 0x58, 0xd2, 0xce, 0x5e, 0xad, 0xb0, 0xe6, 
  0x8c, 0x9e, 0x54, 0x9e, 0x64, 0x51, 0xa7, 0x89, 0x87, 0x3a, 0x3b, 0xc2, 
  0x19, 0x18, 0x79, 0xdd, 0x9b, 0xb0, 0x89, 0x63, 0x20, 0x1c, 0xb1, 0x04, 
  0xbc, 0xaa, 0x6e, 0x57, 0x02, 0x6d, 0x6e, 0xd4, 0x67, 0x97, 0x1e, 0x51, 
  0x60, 0x18, 0x5b, 0x85, 0xa2, 0x11, 0xf8, 0xc0, 0xee, 0x9b, 0xf5, 0x54, 
  0x26, 0x57, 0x0a, 0x75, 0xa0, 0x1c, 0xdd, 0x8d, 0x76, 0x02, 0x9e, 0xc3, 
  0xa0, 0xd5, 0x8c, 0x13, 0xbc, 0x62, 0x9e, 0x57, 0x66, 0x4d, 0x94, 0x8e, 
  0xe2, 0x4e, 0xf7, 0xb0, 0x63, 0x97, 0x1c, 0x2e, 0x86, 0x81, 0x35, 0x90, 
  0x70, 0xaf, 0xd3, 0x62, 0x11, 0x38, 0x86, 0x02, 0xe1, 0x85, 0xed, 0x09, 
  0x17, 0x0c, 0x73, 0x08, 0xe2, 0xa7, 0x42, 0xd3, 0x48, 0x5a, 0x78, 0x14, 
  0x2c, 0x8f, 0x0f, 0x5d, 0xe6, 0xe3, 0xe8, 0x0a, 0xe7, 0xd7, 0x05, 0x1f, 
  0xfe, 0x06, 0xd4, 0xea, 0x2e, 0xb2, 0xcd, 0x0d, 0x23, 0xdd, 0x0a, 0x30, 
  0x48, 0x3b, 0x08, 0xfd, 0x31, 0xcc, 0x07, 0xe1, 0xb5, 0xa8, 0x17, 0x39, 
  0x02, 0xf6, 0xf4, 0xf2, 0x1e, 0x46, 0x17, 0xda, 0xf3, 0x2d, 0x21, 0xd2, 
  0x0c, 0xec, 0x08, 0xe1, 0x1a, 0x44, 0xff, 0x32, 0xf5, 0x10, 0x15, 0xeb, 
  0x52, 0xd7, 0x36, 0x15, 0x4b, 0x38, 0x29, 0xfb, 0xee, 0xd2, 0xec, 0xf0, 
  0xe1, 0xe9, 0xbf, 0x11, 0x0f, 0xc3, 0xdd, 0xbb, 0xfe, 0xcc, 0x9a, 0x22, 
  0xea, 0xda, 0xe1, 0x24, 0xe6, 0xbb, 0x02, 0x25, 0xcb, 0xc8, 0x0d, 0x31, 
  0x1a, 0x17, 0xe7, 0x13, 0xf7, 0xde, 0x14, 0x02, 0xf7, 0x1b, 0x03, 0xc3, 
  0xea, 0x81, 0xee, 0x18, 0x3b, 0x0e, 0xef, 0x22, 0x41, 0x69, 0x11, 0x12, 
  0x38, 0x47, 0x01, 0xea, 0xb1, 0xd1, 0x24, 0x14, 0xef, 0x44, 0x37, 0x4a, 
  0xed, 0x47, 0x41, 0x0b, 0x0a, 0xd3, 0x06, 0xac, 0xcd, 0xee, 0xe5, 0xde, 
  0xe4, 0xc5, 0x19, 0x2f, 0x6b, 0xcc, 0x1f, 0xf2, 0x85, 0x15, 0x9d, 0x05, 
  0xf9, 0xf9, 0xf8, 0x8f, 0xd5, 0xc8, 0x82, 0xa8, 0xda, 0x3b, 0x93, 0x08, 
  0xb7, 0x15, 0x36, 0xb3, 0xac, 0x18, 0x71, 0x2c, 0xd1, 0x2c, 0x92, 0x50, 
  0x6e, 0x14, 0x72, 0x19, 0xee, 0x2b, 0xb9, 0xdb, 0x3b, 0xae, 0x8e, 0xd0, 
  0x8a, 0x18, 0x77, 0xee, 0x4b, 0x2f, 0x94, 0xe0, 0x13, 0x24, 0x8c, 0xe2, 
  0x7e, 0xce, 0x20, 0xf7, 0x9c, 0x81, 0x5f, 0x4e, 0x0d, 0xfe, 0xca, 0x83, 
  0x04, 0x07, 0xf5, 0x6d, 0x41, 0xa6, 0x01, 0x0a, 0xa3, 0x0d, 0x26, 0x81, 
  0xf1, 0x90, 0x0f, 0x74, 0x99, 0x5e, 0x5c, 0xbe, 0x86, 0x7c, 0x29, 0x4f, 
  0xa5, 0x8c, 0x50, 0xde, 0x45, 0xb2, 0x33, 0x70, 0x7d, 0x5b, 0x62, 0xf8, 
  0x3d, 0x96, 0x84, 0x34, 0xfc, 0x0f, 0x35, 0x89, 0x78, 0xda, 0xb7, 0x30, 
  0xec, 0xba, 0xb6, 0x5e, 0xbd, 0x6b, 0xc6, 0x21, 0x05, 0x6b, 0xe3, 0x09, 
  0xa3, 0xee, 0x58, 0x7f, 0x7d, 0xf7, 0x58, 0x3f, 0xf0, 0xeb, 0xa7, 0x9d, 
  0x48, 0x11, 0xe0, 0xe0, 0xe6, 0xeb, 0x18, 0x37, 0x15, 0x4b, 0x3c, 0x28, 
  0x26, 0x03, 0x10, 0x14, 0xb7, 0xcd, 0x35, 0xe4, 0x09, 0x27, 0x3a, 0x05, 
  0x5f, 0x5b, 0x03, 0x09, 0x24, 0xec, 0xe4, 0xdc, 0x00, 0xfb, 0x3b, 0x00, 
  0xea, 0x17, 0xee, 0xfb, 0xea, 0xd5, 0x08, 0x09, 0xcd, 0xe5, 0x27, 0x28, 
  0x17, 0x07, 0xe6, 0x2b, 0xed, 0xf9, 0xe7, 0x0c, 0xfb, 0x13, 0x13, 0x28, 
  0x15, 0x1f, 0xf6, 0xf9, 0x21, 0x43, 0x46, 0x35, 0x21, 0x50, 0x40, 0x0a, 
  0x10, 0x38, 0x4d, 0x06, 0xe2, 0x2f, 0xea, 0x1b, 0x1c, 0x2e, 0xf6, 0x20, 
  0x33, 0x3f, 0xf5, 0xe4, 0x10, 0x33, 0x1b, 0x25, 0xe4, 0x30, 0xfb, 0x26, 
  0x5c, 0x22, 0x27, 0x40, 0xe7, 0x7f, 0x2f, 0x36, 0x0a, 0x07, 0x33, 0x0b, 
  0x9c, 0xb6, 0xdb, 0xff, 0xfd, 0xd3, 0xea, 0xfa, 0x19, 0x33, 0x21, 0x02, 
  0x43, 0xd3, 0xc4, 0xe9, 0x0a, 0xc7, 0xd5, 0xea, 0xf8, 0x15, 0x10, 0x1e, 
  0x07, 0xdc, 0xeb, 0xf9, 0x15, 0x02, 0x01, 0xd8, 0x2e, 0xdc, 0xf3, 0xfd, 
  0xe7, 0x30, 0x70, 0xa0, 0xdf, 0xdc, 0x1d, 0xf7, 0xc4, 0xa3, 0xad, 0x4f, 
  0xdf, 0x4e, 0xf5, 0x0d, 0x96, 0x65, 0x22, 0x65, 0xbb, 0xd3, 0xfb, 0xa8, 
  0xa5, 0xff, 0x28, 0x27, 0x4e, 0xe6, 0x26, 0x2d, 0x87, 0x40, 0xf2, 0xa5, 
  0x17, 0x10, 0x00, 0xcf, 0x83, 0x10, 0x9f, 0x98, 0x1e, 0xdc, 0x01, 0x68, 
  0x6f, 0xdd, 0x17, 0xea, 0xa9, 0xdb, 0xa5, 0xe7, 0x26, 0xd8, 0xd8, 0xb6, 
  0xef, 0xb3, 0x2d, 0x51, 0x81, 0x8c, 0x8b, 0x35, 0x52, 0x1c, 0xc4, 0xc1, 
  0x9d, 0xc0, 0x9f, 0x45, 0xe3, 0xe2, 0x64, 0x38, 0x93, 0xef, 0xbf, 0xe6, 
  0x8e, 0x38, 0x8e, 0x0b, 0xd1, 0x18, 0x88, 0xf1, 0x6e, 0x46, 0xc6, 0xec, 
  0x49, 0xde, 0xcf, 0xc5, 0x92, 0x94, 0xe5, 0x0f, 0x7c, 0x1d, 0x14, 0xd4, 
  0x9e, 0xc3, 0x36, 0x21, 0x1a, 0x9f, 0x2c, 0xa0, 0xec, 0xd4, 0x29, 0x54, 
  0xb4, 0xe4, 0xc7, 0x43, 0x2b, 0x8e, 0xde, 0xf6, 0x01, 0x02, 0x61, 0xf0, 
  0x1d, 0x66, 0x6d, 0xb6, 0xcf, 0x1f, 0xf0, 0x0d, 0x1f, 0x6e, 0x05, 0xdd, 
  0x54, 0x13, 0x0b, 0x0d, 0x1f, 0xe6, 0xfd, 0x12, 0x69, 0x53, 0xe5, 0xde, 
  0x6f, 0x45, 0xd9, 0x1c, 0xe4, 0xb6, 0xd0, 0xcb, 0xde, 0x06, 0xc5, 0xaf, 
  0x26, 0x4b, 0xe2, 0x08, 0xcf, 0x0d, 0x16, 0xbc, 0xfc, 0xbc, 0x0d, 0xfa, 
  0x5b, 0x25, 0xf2, 0xd8, 0x01, 0xb2, 0xdb, 0xfa, 0x58, 0xef, 0xe4, 0x12, 
  0x1a, 0x39, 0xd7, 0x1b, 0xdf, 0xc0, 0x1c, 0x23, 0x18, 0xab, 0xfa, 0xf6, 
  0xf6, 0xe6, 0x04, 0x2a, 0x32, 0x3e, 0xff, 0xe1, 0xe5, 0xe7, 0xf2, 0xd3, 
  0x03, 0xaf, 0xc8, 0x06, 0x2c, 0xe3, 0xf4, 0x03, 0xd9, 0xfd, 0xb2, 0x01, 
  0xf2, 0xb9, 0xaf, 0xe4, 0x1c, 0x5b, 0xdd, 0xec, 0x12, 0xb2, 0xc5, 0xfc, 
  0x25, 0xd5, 0xfd, 0x07, 0x52, 0x1e, 0x23, 0xf4, 0x7d, 0x7f, 0xf1, 0xcb, 
  0xf4, 0x81, 0xec, 0xfc, 0xb4, 0x20, 0xf8, 0xff, 0xe2, 0x62, 0x2c, 0x06, 
  0xf1, 0x1e, 0x21, 0x1c, 0xe4, 0xd4, 0x14, 0x10, 0xf9, 0x22, 0x16, 0xef, 
  0x93, 0xdc, 0xc4, 0x2c, 0xe3, 0x60, 0x36, 0x36, 0x8b, 0xbd, 0x0b, 0x1d, 
  0xf2, 0xf9, 0x65, 0x2a, 0x59, 0x31, 0xce, 0xb2, 0x33, 0xdf, 0x9f, 0x5d, 
  0x94, 0xb4, 0xe5, 0x22, 0x91, 0xcf, 0x60, 0x2c, 0x87, 0x49, 0x69, 0xe8, 
  0x0f, 0xbe, 0x57, 0x92, 0xd7, 0x36, 0xc8, 0xae, 0xc0, 0x35, 0xf0, 0xba, 
  0xd7, 0x5f, 0xc4, 0x34, 0xbd, 0x86, 0x9d, 0xef, 0xb4, 0xf6, 0x87, 0x63, 
  0x06, 0x04, 0xce, 0xf3, 0x0a, 0xd2, 0x21, 0x83, 0xb8, 0xd0, 0xc7, 0x5f, 
  0x8f, 0x91, 0x81, 0xf6, 0xb5, 0x0d, 0x9e, 0xe0, 0x2c, 0x8a, 0x31, 0xa3, 
  0xe7, 0xba, 0x8c, 0xe1, 0xab, 0xf7, 0x11, 0xaf, 0x0c, 0xde, 0xbc, 0x98, 
  0x8a, 0xe1, 0x1d, 0xf7, 0x20, 0x38, 0x00, 0x8a, 0xa1, 0x1c, 0xa6, 0x67, 
  0xd1, 0x9d, 0xbb, 0xab, 0x2e, 0xae, 0xdc, 0xa8, 0x83, 0xaa, 0xb8, 0xf8, 
  0xfb, 0xfd, 0x9b, 0x5b, 0x04, 0x17, 0xc8, 0xe7, 0xd4, 0xfe, 0xf4, 0xef, 
  0x96, 0x9a, 0xf3, 0x77, 0x81, 0x17, 0xe0, 0x5b, 0x2e, 0xf4, 0xff, 0xff, 
  0x04, 0x00, 0x00, 0x00, 0x00, 0x01, 0x00, 0x00, 0x59, 0x82, 0xd6, 0x3c, 
  0x7b, 0xca, 0x0c, 0x3e, 0xcc, 0xe5, 0xb1, 0xbd, 0x9e, 0xad, 0x68, 0xbe, 
  0x0e, 0x32, 0x22, 0x3e, 0x3c, 0x86, 0x76, 0x3d, 0x3b, 0x97, 0x8b, 0xbd, 
  0xff, 0x5a, 0x7d, 0xbd, 0x45, 0x74, 0xf4, 0xbd, 0xb9, 0xf5, 0x25, 0xbe, 
  0x70, 0x03, 0x1b, 0xbe, 0x6e, 0xc7, 0xe2, 0x3d, 0xc7, 0x88, 0xc2, 0x3d, 
  0x69, 0xaa, 0x04, 0x3e, 0xe8, 0xfc, 0xda, 0x3d, 0x3b, 0x16, 0x85, 0x3e, 
  0x57, 0x15, 0x71, 0x3d, 0x81, 0xa2, 0xc4, 0xbe, 0x1b, 0x8e, 0x67, 0x3e, 
  0x5b, 0x33, 0xe5, 0xbd, 0x11, 0xd4, 0xb5, 0x3d, 0x1e, 0xec, 0xa9, 0xbe, 
  0x9f, 0x59, 0xd3, 0x3d, 0x2a, 0x84, 0x9f, 0xbd, 0x1d, 0xf7, 0xad, 0xbe, 
  0xb8, 0x5a, 0x6e, 0xbd, 0x9d, 0x06, 0x99, 0xbe, 0x2d, 0x54, 0x02, 0x3e, 
  0xd9, 0x50, 0x99, 0x3e, 0x40, 0x4e, 0xdb, 0x3d, 0xe9, 0x3b, 0x34, 0xbd, 
  0x45, 0x7a, 0x03, 0x3d, 0xb1, 0xa7, 0xd8, 0xbd, 0xf3, 0x8d, 0x36, 0xbe, 
  0x10, 0x95, 0x57, 0x3e, 0x6a, 0x3b, 0x67, 0x3e, 0x3f, 0x11, 0xb7, 0xbb, 
  0xd2, 0xd1, 0x7e, 0xbe, 0xd3, 0x17, 0xeb, 0xbd, 0x3f, 0x5e, 0x09, 0x3e, 
  0xac, 0x72, 0xab, 0x3d, 0xa6, 0xe4, 0xcb, 0x3d, 0x8b, 0x26, 0x13, 0x3e, 
  0xc8, 0xe0, 0x04, 0xbe, 0x55, 0x4e, 0xc4, 0x3d, 0x79, 0x10, 0xfc, 0xbd, 
  0x12, 0xe7, 0x1c, 0xbe, 0xff, 0x13, 0x15, 0xbe, 0x02, 0xa4, 0x00, 0x3e, 
  0x1f, 0x7f, 0x1a, 0x3e, 0x75, 0x1f, 0x0f, 0xbe, 0x0e, 0x5e, 0x6d, 0x3e, 
  0x12, 0x91, 0xed, 0x3d, 0x07, 0x67, 0xd9, 0x3d, 0xbf, 0x17, 0x4a, 0xbe, 
  0x19, 0xcf, 0x2a, 0xbe, 0x82, 0xfc, 0xf3, 0x3d, 0x81, 0x3d, 0x12, 0xbd, 
  0xd5, 0x3b, 0x89, 0x3e, 0xc0, 0x09, 0xc3, 0xbd, 0x14, 0x6b, 0x54, 0xbe, 
  0x9e, 0xb6, 0xe3, 0xbd, 0x5b, 0x55, 0x8f, 0x3e, 0x35, 0x7d, 0x74, 0xbd, 
  0x3a, 0xf5, 0xff, 0xff, 0x04, 0x00, 0x00, 0x00, 0xb0, 0x01, 0x00, 0x00, 
  0x94, 0xb2, 0x67, 0x3a, 0xce, 0x51, 0x8c, 0xbe, 0x78, 0x2e, 0xd7, 0x3d, 
  0xce, 0xb0, 0xdf, 0xbe, 0x1f, 0x48, 0x09, 0xbe, 0x61, 0xc7, 0x30, 0x3e, 
  0x9c, 0xb3, 0x88, 0x3c, 0x29, 0x05, 0x9f, 0xbd, 0x2f, 0x84, 0xbb, 0x3d, 
  0xc7, 0x1f, 0xf4, 0xbd, 0x73, 0x65, 0x67, 0xbe, 0xfd, 0xdf, 0x50, 0xbd, 
  0x8d, 0x98, 0x5b, 0xbe, 0x7f, 0x51, 0x8a, 0x3d, 0x80, 0x2a, 0x17, 0x3e, 
  0xf3, 0x91, 0x36, 0xbe, 0xa4, 0xc8, 0x17, 0x3c, 0x78, 0xbb, 0xb2, 0xbd, 
  0xb3, 0x9e, 0x16, 0x3e, 0x99, 0x36, 0xab, 0x3c, 0x01, 0x76, 0x66, 0xbc, 
  0x49, 0x96, 0x17, 0xbe, 0x15, 0x27, 0xa4, 0x3d, 0x35, 0xd2, 0xa0, 0x3d, 
  0x50, 0xcf, 0x8a, 0x3d, 0x0e, 0x37, 0xc2, 0x3e, 0xd0, 0x56, 0x1e, 0x3e, 
  0x35, 0x9a, 0xa7, 0xbe, 0xec, 0x94, 0x02, 0xbe, 0xaa, 0x7b, 0xcf, 0x3c, 
  0xfe, 0xc6, 0x17, 0x3d, 0xa4, 0x8d, 0x32, 0xbe, 0xb4, 0xec, 0xfc, 0xbd, 
  0x52, 0x74, 0xca, 0xbe, 0xf6, 0x67, 0x92, 0xbb, 0x63, 0x21, 0xef, 0x3d, 
  0xd9, 0xc1, 0x57, 0xbe, 0xf9, 0x0a, 0xf3, 0xbc, 0xe3, 0x5c, 0x37, 0x3e, 
  0x66, 0x48, 0x88, 0xbd, 0x9a, 0xfb, 0x60, 0xbe, 0x76, 0xa8, 0x9b, 0xbe, 
  0xf4, 0x2e, 0xee, 0xbd, 0xa7, 0x51, 0xc2, 0xbd, 0x2d, 0xf6, 0x97, 0x3d, 
  0x2a, 0x6b, 0xf3, 0xbc, 0x56, 0x61, 0x1f, 0x3f, 0x7c, 0x82, 0x6e, 0x3e, 
  0x63, 0x6c, 0xc2, 0xbd, 0x8b, 0x50, 0x87, 0x3e, 0x3f, 0xa2, 0x15, 0xbe, 
  0x46, 0x87, 0xf0, 0xbd, 0xfc, 0x80, 0xb8, 0x3d, 0x46, 0xa7, 0xda, 0x3d, 
  0x15, 0x28, 0xbb, 0xbe, 0x98, 0x8e, 0x46, 0xbe, 0xcf, 0xf0, 0xa6, 0x3d, 
  0x22, 0xac, 0x8a, 0xbe, 0x81, 0x6f, 0x85, 0xbe, 0xb9, 0x28, 0xf1, 0xbc, 
  0xc2, 0x66, 0xc2, 0xbd, 0x9e, 0xbe, 0x9f, 0x3c, 0x29, 0xcd, 0xe4, 0xbd, 
  0x83, 0xff, 0xe5, 0xbe, 0x9c, 0x31, 0x34, 0x3d, 0x93, 0x1c, 0x6b, 0xbd, 
  0xb5, 0x43, 0x0e, 0xbd, 0x38, 0x19, 0x06, 0xbe, 0x68, 0xf1, 0x26, 0xbe, 
  0x04, 0xa1, 0xb2, 0xbd, 0xba, 0x34, 0xa1, 0xbd, 0x83, 0xf3, 0xe9, 0xbc, 
  0x76, 0x18, 0xf1, 0x3c, 0xc7, 0xe1, 0x0e, 0x3e, 0x7d, 0xec, 0x1d, 0x3d, 
  0x6d, 0x02, 0x5f, 0xbe, 0xfe, 0xdf, 0x14, 0xbd, 0xf0, 0xa4, 0x3e, 0xbe, 
  0x9f, 0xc4, 0xd6, 0xbc, 0x76, 0x71, 0xc5, 0x3d, 0x19, 0x64, 0x30, 0x3e, 
  0xdf, 0x9a, 0x9d, 0xbe, 0xb8, 0x50, 0x39, 0xbe, 0x9f, 0x98, 0x05, 0x3e, 
  0xdd, 0xb4, 0x43, 0x3e, 0x69, 0x37, 0xc9, 0xbc, 0x06, 0x33, 0x78, 0x3d, 
  0xbe, 0x24, 0xc1, 0x3e, 0xd0, 0x8d, 0x27, 0xbe, 0xcc, 0xc2, 0xcf, 0x3d, 
  0xc6, 0x07, 0x3a, 0xbe, 0xff, 0xc1, 0xbe, 0xbe, 0x21, 0x5f, 0x19, 0x3e, 
  0xd0, 0x2e, 0x3f, 0x3c, 0xde, 0xbb, 0xad, 0x3c, 0xe0, 0x2c, 0xde, 0xbd, 
  0x37, 0x81, 0x9e, 0x3e, 0x50, 0x15, 0xa1, 0x3d, 0x7c, 0xc2, 0x04, 0xbb, 
  0x5c, 0x9d, 0x46, 0xbe, 0xf3, 0x05, 0x9c, 0xbe, 0x9f, 0x99, 0x24, 0x3e, 
  0x26, 0x0b, 0x8e, 0xbd, 0x13, 0x58, 0xf1, 0x3d, 0xbd, 0x5a, 0xa0, 0xbd, 
  0x9c, 0x02, 0x0f, 0x3d, 0x5e, 0xf5, 0xa0, 0x3e, 0xd4, 0x87, 0xd9, 0xbb, 
  0xf6, 0xf6, 0xff, 0xff, 0x04, 0x00, 0x00, 0x00, 0x80, 0x04, 0x00, 0x00, 
  0x2d, 0xba, 0xe0, 0x3d, 0x88, 0xa0, 0x83, 0x3e, 0xdd, 0xc2, 0xa0, 0x3d, 
  0xe2, 0x3b, 0xe0, 0x3d, 0x08, 0x37, 0xe8, 0x3c, 0x44, 0xfe, 0xb8, 0x3e, 
  0x35, 0x0b, 0x31, 0x3e, 0xe0, 0x5f, 0x46, 0x3e, 0xae, 0xcf, 0xce, 0xbd, 
  0x42, 0xda, 0x96, 0x3c, 0x51, 0x5a, 0x1f, 0x3d, 0x4f, 0x50, 0x99, 0x3d, 
  0x7c, 0x93, 0xd9, 0xbd, 0x87, 0xc2, 0x65, 0x3d, 0x0c, 0xbd, 0x17, 0x3e, 
  0x5d, 0x1e, 0xd0, 0xbd, 0x83, 0xfb, 0xee, 0x3d, 0xd9, 0x6d, 0x43, 0x3e, 
  0x87, 0xe0, 0x48, 0x3d, 0x6c, 0xfa, 0x0e, 0x3d, 0x38, 0x29, 0xe1, 0xbd, 
  0x54, 0xce, 0x81, 0x3d, 0xe8, 0x31, 0x8d, 0xbd, 0xc5, 0x68, 0x14, 0xbe, 
  0xf8, 0xd9, 0x4a, 0x3d, 0x35, 0xf6, 0x42, 0xbe, 0xad, 0x81, 0x29, 0xbd, 
  0x68, 0x4a, 0xee, 0xba, 0xe8, 0x9d, 0x0d, 0xbe, 0x74, 0x25, 0x79, 0x3d, 
  0xcd, 0xca, 0x8f, 0x3d, 0x2d, 0x84, 0x1f, 0xbe, 0x4c, 0xd3, 0x31, 0xbe, 
  0xa7, 0x27, 0xc5, 0x3d, 0xef, 0x8d, 0xb9, 0x3c, 0x69, 0x3b, 0xf2, 0x3c, 
  0x4a, 0x5b, 0xbf, 0x3d, 0x50, 0xc0, 0xff, 0x3d, 0x93, 0xae, 0x2c, 0x3d, 
  0x7e, 0xd4, 0xdc, 0xbd, 0x40, 0xf9, 0xab, 0x3c, 0x21, 0x93, 0xb0, 0x3e, 
  0xa9, 0xde, 0x0c, 0x3d, 0xa1, 0x0f, 0x57, 0x3e, 0xd0, 0x17, 0xb9, 0x3d, 
  0x74, 0x3f, 0xca, 0x3e, 0x0b, 0xa8, 0x11, 0x3e, 0x14, 0x18, 0xb0, 0xbd, 
  0xe8, 0xf3, 0x87, 0x3e, 0xb0, 0x6d, 0x9a, 0x3d, 0xd9, 0x21, 0x24, 0x3e, 
  0x94, 0xb3, 0x4f, 0x3d, 0x3b, 0xde, 0xae, 0x3d, 0x18, 0xfb, 0x21, 0x3e, 
  0x4d, 0xbb, 0xa2, 0x3d, 0x02, 0x6a, 0x40, 0x3e, 0x2c, 0xf8, 0x25, 0x3e, 
  0x87, 0x3a, 0x64, 0x3e, 0xdd, 0x98, 0xa5, 0x3d, 0x9e, 0xd4, 0x39, 0xbd, 
  0x21, 0x08, 0xa6, 0x3d, 0x63, 0xc5, 0x2d, 0x3e, 0x35, 0x62, 0x19, 0x3e, 
  0x17, 0x4c, 0xf1, 0xbc, 0xcc, 0x94, 0x7b, 0x3c, 0x4c, 0x9e, 0x9e, 0x3d, 
  0xef, 0x39, 0xbb, 0xbc, 0x49, 0xa2, 0xae, 0x3d, 0xa0, 0x60, 0x12, 0xbe, 
  0x98, 0x7e, 0x61, 0x3c, 0xa1, 0x5b, 0x0f, 0x3d, 0xb9, 0x23, 0x6f, 0xbe, 
  0x5a, 0xfa, 0xb7, 0x3d, 0x0f, 0xa5, 0xb8, 0xbd, 0x3b, 0xe8, 0xd2, 0x3d, 
  0xb7, 0xd5, 0xe0, 0xbd, 0x98, 0x24, 0x4e, 0xbe, 0x0b, 0xc0, 0x0a, 0xbd, 
  0x1c, 0xf1, 0x13, 0x3c, 0x10, 0xa1, 0x4f, 0x3c, 0x38, 0xaa, 0xf3, 0x3d, 
  0x5d, 0x1f, 0x25, 0xbd, 0x80, 0xde, 0xd5, 0x3d, 0x42, 0xa4, 0x9b, 0xbd, 
  0xf7, 0xed, 0x48, 0xbd, 0xa2, 0xdb, 0x1a, 0x3d, 0x57, 0x93, 0xaa, 0x3c, 
  0x93, 0x84, 0xd8, 0x3c, 0xbc, 0x46, 0x53, 0xbe, 0xca, 0xe8, 0x8e, 0xbd, 
  0xf8, 0xf0, 0xd4, 0xbd, 0xdc, 0xf8, 0x80, 0xbb, 0xd9, 0x46, 0x0f, 0xbe, 
  0x01, 0x00, 0xf9, 0x3d, 0x87, 0xe5, 0xdd, 0xbc, 0x66, 0x3d, 0x58, 0x3e, 
  0x56, 0xf7, 0xdf, 0x3c, 0x02, 0xa5, 0x2d, 0x3e, 0x76, 0xb7, 0x20, 0x3e, 
  0x6f, 0xa0, 0xfe, 0x3b, 0x95, 0xd4, 0x1e, 0x3e, 0xb3, 0x65, 0x8b, 0xbd, 
  0x08, 0x7c, 0x3d, 0x3e, 0x0e, 0x5e, 0x6f, 0xbd, 0x79, 0xe8, 0xe8, 0xbc, 
  0x92, 0x38, 0xd9, 0xbd, 0x38, 0xcd, 0xc6, 0x3d, 0x3b, 0x8a, 0x85, 0x3e, 
  0x8e, 0x35, 0x47, 0x3e, 0x33, 0x3f, 0xab, 0x3c, 0x15, 0x22, 0x82, 0x3c, 
  0xe4, 0xef, 0xea, 0xbd, 0xfd, 0xc8, 0xa0, 0x3d, 0x61, 0x54, 0x38, 0xbd, 
  0x53, 0x12, 0x32, 0x3e, 0x50, 0xac, 0xc5, 0xbd, 0x72, 0x37, 0x52, 0x3d, 
  0xe9, 0x02, 0x85, 0x3d, 0x8b, 0xbf, 0xbc, 0xbc, 0xbe, 0xb1, 0x16, 0x3e, 
  0x76, 0xa5, 0x2e, 0xbe, 0xfb, 0x18, 0x25, 0xbe, 0x7c, 0x5f, 0x63, 0xbe, 
  0x34, 0x85, 0x10, 0xbe, 0x15, 0x6f, 0xc9, 0x3d, 0x5f, 0x1d, 0x33, 0xbc, 
  0x5b, 0xfb, 0x25, 0xbd, 0xd3, 0x17, 0x03, 0xbd, 0x5d, 0x3d, 0xf1, 0x3d, 
  0xd1, 0xe1, 0xfa, 0xbd, 0x80, 0xb3, 0x0d, 0xbc, 0xda, 0x24, 0x38, 0x3c, 
  0xee, 0x3f, 0x88, 0xbd, 0x04, 0x9b, 0xdb, 0xbd, 0xc7, 0x6a, 0x50, 0xbb, 
  0x7c, 0x85, 0x0c, 0x3e, 0xa3, 0x12, 0x81, 0x3b, 0x6e, 0x72, 0x0b, 0x3e, 
  0x47, 0xaf, 0xf5, 0x3d, 0x93, 0xb4, 0x67, 0x3e, 0x6b, 0x92, 0xbb, 0xbd, 
  0xde, 0xf4, 0xfa, 0xbd, 0x5d, 0x85, 0x86, 0xbe, 0x2a, 0x53, 0xd0, 0xbd, 
  0xc2, 0xce, 0x06, 0x3e, 0xd0, 0x94, 0xf4, 0x3c, 0xac, 0x0d, 0x7d, 0xbd, 
  0xde, 0x5d, 0x0b, 0xbd, 0x8f, 0x35, 0xbe, 0x3c, 0xbf, 0xfd, 0x3a, 0x3e, 
  0xc9, 0x91, 0xc1, 0x3c, 0xa0, 0xc4, 0xb9, 0xbd, 0x70, 0x71, 0x2c, 0x3d, 
  0xab, 0xef, 0xf3, 0x3d, 0x8f, 0xf3, 0x48, 0x3e, 0x3e, 0xcf, 0x2c, 0xbe, 
  0xf2, 0xd6, 0x2a, 0x3e, 0x16, 0xdc, 0x31, 0x3e, 0x02, 0x21, 0x30, 0xbd, 
  0xbd, 0x8d, 0x2c, 0xbe, 0xcb, 0xf8, 0xcb, 0x3d, 0x8d, 0x74, 0x94, 0x3b, 
  0x02, 0x3e, 0xe2, 0xbd, 0xae, 0xc2, 0x7b, 0xbe, 0xbd, 0x60, 0x11, 0xbe, 
  0xd7, 0xb9, 0xaa, 0x3d, 0x89, 0x97, 0xe2, 0x3d, 0x0b, 0xae, 0xef, 0xbd, 
  0x50, 0xa9, 0x5e, 0xbc, 0x46, 0xed, 0xab, 0x3e, 0x54, 0x91, 0x29, 0x3e, 
  0x1a, 0x1c, 0x0b, 0xbe, 0x6d, 0x51, 0x81, 0xbc, 0xd6, 0x7f, 0x83, 0x3e, 
  0xb9, 0xd4, 0x06, 0x3c, 0xe4, 0x70, 0x3b, 0xbe, 0x93, 0xad, 0xb2, 0x3d, 
  0x2c, 0x0a, 0x9e, 0x3d, 0x5b, 0x99, 0xbb, 0x3c, 0x49, 0x7f, 0x89, 0x3d, 
  0x63, 0x76, 0xee, 0x3c, 0x9c, 0x3d, 0x69, 0x3e, 0xee, 0x1e, 0xf0, 0xbd, 
  0xc4, 0x6b, 0xfa, 0x3d, 0x74, 0x2f, 0x04, 0x3d, 0x54, 0x87, 0xa5, 0x3c, 
  0xf4, 0x47, 0xc3, 0x3d, 0x15, 0x45, 0xbc, 0xbd, 0x85, 0x21, 0x31, 0xbc, 
  0x4a, 0xf0, 0xb1, 0x3d, 0x50, 0xf2, 0xee, 0x3d, 0x95, 0x7e, 0xa1, 0xbd, 
  0xaf, 0x17, 0x06, 0x3e, 0xf8, 0xd1, 0x18, 0x3e, 0xc1, 0xba, 0x48, 0xbd, 
  0x8e, 0xea, 0x4f, 0xbe, 0x85, 0xf5, 0xa0, 0xbd, 0xb6, 0xf9, 0xd1, 0x3c, 
  0x3f, 0xb8, 0x75, 0x3c, 0x87, 0x8f, 0x55, 0xbe, 0x4f, 0xed, 0x26, 0xbc, 
  0x57, 0x68, 0xe3, 0x3d, 0x29, 0x5f, 0xad, 0xbd, 0x7d, 0x4c, 0x37, 0x3d, 
  0xb4, 0x32, 0xe4, 0x3c, 0x4a, 0x5a, 0xac, 0x3c, 0x28, 0xa5, 0xf8, 0x3d, 
  0x51, 0x0c, 0x84, 0x3c, 0x03, 0xde, 0xac, 0xbd, 0xbc, 0xba, 0xc5, 0x3d, 
  0x9b, 0xb6, 0xc7, 0xbd, 0x52, 0xae, 0xa8, 0x3d, 0x7e, 0xc7, 0x11, 0x3e, 
  0xf4, 0x9d, 0xa9, 0x3e, 0x24, 0x9b, 0xfd, 0x3d, 0xb5, 0xb6, 0x02, 0xbe, 
  0xc2, 0xa5, 0x8c, 0xbe, 0x73, 0x56, 0x89, 0x3d, 0x3c, 0xfd, 0xa4, 0xbe, 
  0x6f, 0x70, 0xdf, 0xbb, 0xd4, 0xd7, 0x76, 0xbe, 0xc0, 0xc4, 0x25, 0x3e, 
  0x0a, 0x5f, 0xee, 0x3d, 0x2f, 0xf0, 0x00, 0xbd, 0x6a, 0xdb, 0x86, 0x3c, 
  0xdb, 0x7b, 0x63, 0x3d, 0x7f, 0x0a, 0x4e, 0xbe, 0x09, 0xc3, 0xd6, 0xbc, 
  0x57, 0xd1, 0x52, 0xbe, 0x22, 0x61, 0x5a, 0x3c, 0x07, 0x70, 0x67, 0xbe, 
  0x9a, 0x9e, 0x09, 0x3e, 0x85, 0xcf, 0x1d, 0xbe, 0x9a, 0xd5, 0xb3, 0x3e, 
  0x02, 0x45, 0x27, 0x3e, 0x90, 0xa2, 0x8f, 0x3e, 0x0f, 0x8d, 0x15, 0xbe, 
  0xd6, 0xaf, 0xd7, 0xbb, 0xf4, 0xaf, 0xb1, 0xbd, 0xd5, 0xa3, 0x91, 0x3c, 
  0xc0, 0xcf, 0x21, 0x3e, 0xf8, 0x66, 0x9e, 0x3e, 0x6c, 0xc3, 0x74, 0x3d, 
  0x4f, 0x9b, 0xaa, 0x3e, 0x64, 0xd3, 0xa4, 0xbd, 0x2a, 0x71, 0xfa, 0x3e, 
  0xd0, 0x1b, 0x6e, 0x3d, 0x5c, 0xd7, 0x82, 0x3d, 0x12, 0x79, 0x39, 0xbd, 
  0x84, 0x42, 0xa7, 0x3e, 0x9d, 0x88, 0x16, 0x3d, 0xbe, 0x8e, 0x2b, 0x3b, 
  0x69, 0x65, 0x6d, 0xbc, 0xf9, 0xfb, 0x52, 0xbe, 0xd7, 0xa1, 0x86, 0xbd, 
  0x84, 0xe6, 0x03, 0xbe, 0x52, 0xfd, 0x80, 0xbc, 0x32, 0x27, 0x84, 0xbd, 
  0xc6, 0xe9, 0x2a, 0xbe, 0x51, 0x04, 0x29, 0x3d, 0x39, 0x54, 0x99, 0x3c, 
  0x13, 0xed, 0x44, 0xbd, 0xb8, 0x57, 0x3d, 0x3c, 0xbc, 0x23, 0x2e, 0x3e, 
  0x3c, 0x4a, 0xb8, 0xbd, 0x96, 0xfd, 0x57, 0xbe, 0x08, 0x05, 0x93, 0xbe, 
  0xab, 0xe3, 0xf0, 0x3d, 0xf9, 0xd6, 0x47, 0xbc, 0x8c, 0x9c, 0xbb, 0xbd, 
  0x5e, 0x99, 0xfc, 0xbd, 0x94, 0xc3, 0xd9, 0x3e, 0x8f, 0x3f, 0x68, 0x3e, 
  0x02, 0x63, 0x7a, 0x3e, 0x3a, 0xc9, 0x37, 0xbe, 0xa6, 0x6c, 0x9a, 0xbc, 
  0xc8, 0x17, 0x0e, 0x3e, 0xa9, 0x19, 0xe7, 0xbd, 0x3f, 0x50, 0x48, 0x3e, 
  0xa9, 0xc9, 0x94, 0x3e, 0xec, 0x8e, 0x44, 0x3e, 0x93, 0xfd, 0xab, 0xbd, 
  0x37, 0xc8, 0x20, 0xbd, 0x41, 0x60, 0xdf, 0x3e, 0xf5, 0x07, 0xa2, 0x3d, 
  0x5b, 0x3c, 0xfd, 0x3d, 0x79, 0x83, 0x2a, 0x3d, 0xeb, 0xdf, 0x83, 0xbd, 
  0x82, 0xfb, 0xff, 0xff, 0x04, 0x00, 0x00, 0x00, 0x08, 0x00, 0x00, 0x00, 
  0xe3, 0x50, 0x75, 0xbc, 0x3c, 0xcd, 0xae, 0xbd, 0x96, 0xfb, 0xff, 0xff, 
  0x04, 0x00, 0x00, 0x00, 0x10, 0x00, 0x00, 0x00, 0xf8, 0x0e, 0x37, 0x3e, 
  0x16, 0x7e, 0xff, 0x3d, 0xe6, 0x82, 0x17, 0xbd, 0xc8, 0xed, 0xa9, 0x3d, 
  0xb2, 0xfb, 0xff, 0xff, 0x04, 0x00, 0x00, 0x00, 0x20, 0x00, 0x00, 0x00, 
  0x96, 0xcd, 0xed, 0x3a, 0x12, 0xd3, 0x10, 0xbe, 0x2c, 0x1d, 0x18, 0x3d, 
  0x17, 0xe1, 0x32, 0x3e, 0xad, 0x5e, 0x6a, 0x3d, 0x0a, 0x44, 0x24, 0x3d, 
  0x0a, 0x3b, 0xae, 0xbc, 0xd4, 0x3d, 0x8c, 0x3d, 0xde, 0xfb, 0xff, 0xff, 
  0x04, 0x00, 0x00, 0x00, 0x80, 0x00, 0x00, 0x00, 0x01, 0xf9, 0x5a, 0xbd, 
  0x1b, 0x33, 0x32, 0xbd, 0x31, 0xe4, 0xcb, 0x3d, 0x9c, 0x1c, 0x87, 0xbd, 
  0xed, 0xc7, 0x56, 0xbd, 0x90, 0x4b, 0x30, 0xbd, 0xc7, 0xaa, 0x0f, 0xbd, 
  0x05, 0x52, 0x38, 0x3d, 0x88, 0x24, 0xce, 0x3b, 0x43, 0x30, 0xa2, 0xbd, 
  0x2d, 0x18, 0x86, 0x3d, 0xfa, 0xe2, 0x8b, 0x3d, 0x04, 0xe7, 0x2e, 0xbd, 
  0x46, 0xa3, 0x34, 0x3d, 0xa8, 0xeb, 0x8d, 0x3d, 0xbb, 0xf1, 0x6c, 0x3d, 
  0x3e, 0x51, 0x57, 0xbd, 0x56, 0x1d, 0x99, 0xbc, 0x58, 0x6b, 0x3d, 0x3d, 
  0xa1, 0x3d, 0x9a, 0x3c, 0xe4, 0xf4, 0x69, 0x3d, 0x77, 0x66, 0x05, 0xbd, 
  0x9f, 0x4d, 0x90, 0xbd, 0xde, 0xe6, 0xb7, 0xbd, 0xb9, 0x93, 0xba, 0x3d, 
  0xdc, 0xec, 0xb5, 0xbc, 0x75, 0xa3, 0x94, 0xbb, 0xdb, 0xc9, 0x18, 0xbd, 
  0x38, 0x42, 0x88, 0x3d, 0x42, 0x53, 0xde, 0x3b, 0x83, 0x3b, 0x80, 0xbd, 
  0xcc, 0x36, 0x54, 0xbd, 0x90, 0xec, 0xff, 0xff, 0x6e, 0xfc, 0xff, 0xff, 
  0x04, 0x00, 0x00, 0x00, 0x10, 0x00, 0x00, 0x00, 0xff, 0xff, 0xff, 0xff, 
  0x08, 0x00, 0x00, 0x00, 0x08, 0x00, 0x00, 0x00, 0x03, 0x00, 0x00, 0x00, 
  0x8a, 0xfc, 0xff, 0xff, 0x04, 0x00, 0x00, 0x00, 0x04, 0x00, 0x00, 0x00, 
  0x80, 0x00, 0x00, 0x00, 0x9a, 0xfc, 0xff, 0xff, 0x04, 0x00, 0x00, 0x00, 
  0x04, 0x00, 0x00, 0x00, 0x00, 0x00, 0x00, 0x00, 0xaa, 0xfc, 0xff, 0xff, 
  0x04, 0x00, 0x00, 0x00, 0x04, 0x00, 0x00, 0x00, 0x01, 0x00, 0x00, 0x00, 
  0xba, 0xfc, 0xff, 0xff, 0x04, 0x00, 0x00, 0x00, 0x04, 0x00, 0x00, 0x00, 
  0x02, 0x00, 0x00, 0x00, 0xca, 0xfc, 0xff, 0xff, 0x04, 0x00, 0x00, 0x00, 
  0x14, 0x00, 0x00, 0x00, 0x00, 0x00, 0x00, 0x00, 0x01, 0x00, 0x00, 0x00, 
  0x03, 0x00, 0x00, 0x00, 0x04, 0x00, 0x00, 0x00, 0x02, 0x00, 0x00, 0x00, 
  0x10, 0xed, 0xff, 0xff, 0x14, 0xed, 0xff, 0xff, 0x18, 0xed, 0xff, 0xff, 
  0x0f, 0x00, 0x00, 0x00, 0x4d, 0x4c, 0x49, 0x52, 0x20, 0x43, 0x6f, 0x6e, 
  0x76, 0x65, 0x72, 0x74, 0x65, 0x64, 0x2e, 0x00, 0x01, 0x00, 0x00, 0x00, 
  0x14, 0x00, 0x00, 0x00, 0x00, 0x00, 0x0e, 0x00, 0x18, 0x00, 0x14, 0x00, 
  0x10, 0x00, 0x0c, 0x00, 0x08, 0x00, 0x04, 0x00, 0x0e, 0x00, 0x00, 0x00, 
  0x14, 0x00, 0x00, 0x00, 0x1c, 0x00, 0x00, 0x00, 0xd4, 0x03, 0x00, 0x00, 
  0xd8, 0x03, 0x00, 0x00, 0xe0, 0x03, 0x00, 0x00, 0x04, 0x00, 0x00, 0x00, 
  0x6d, 0x61, 0x69, 0x6e, 0x00, 0x00, 0x00, 0x00, 0x0f, 0x00, 0x00, 0x00, 
  0x84, 0x03, 0x00, 0x00, 0x24, 0x03, 0x00, 0x00, 0xd4, 0x02, 0x00, 0x00, 
  0x90, 0x02, 0x00, 0x00, 0x68, 0x02, 0x00, 0x00, 0x34, 0x02, 0x00, 0x00, 
  0xe4, 0x01, 0x00, 0x00, 0xa0, 0x01, 0x00, 0x00, 0x4c, 0x01, 0x00, 0x00, 
  0x24, 0x01, 0x00, 0x00, 0xec, 0x00, 0x00, 0x00, 0xb8, 0x00, 0x00, 0x00, 
  0x70, 0x00, 0x00, 0x00, 0x38, 0x00, 0x00, 0x00, 0x04, 0x00, 0x00, 0x00, 
  0x22, 0xfd, 0xff, 0xff, 0x14, 0x00, 0x00, 0x00, 0x00, 0x00, 0x00, 0x09, 
  0x14, 0x00, 0x00, 0x00, 0x18, 0x00, 0x00, 0x00, 0x0a, 0x00, 0x00, 0x00, 
  0x9e, 0xfd, 0xff, 0xff, 0x00, 0x00, 0x80, 0x3f, 0x01, 0x00, 0x00, 0x00, 
  0x1f, 0x00, 0x00, 0x00, 0x01, 0x00, 0x00, 0x00, 0x1e, 0x00, 0x00, 0x00, 
  0x52, 0xfd, 0xff, 0xff, 0x14, 0x00, 0x00, 0x00, 0x00, 0x00, 0x00, 0x08, 
  0x10, 0x00, 0x00, 0x00, 0x14, 0x00, 0x00, 0x00, 0x09, 0x00, 0x00, 0x00, 
  0xf4, 0xed, 0xff, 0xff, 0x01, 0x00, 0x00, 0x00, 0x1e, 0x00, 0x00, 0x00, 
  0x03, 0x00, 0x00, 0x00, 0x1d, 0x00, 0x00, 0x00, 0x0f, 0x00, 0x00, 0x00, 
  0x0c, 0x00, 0x00, 0x00, 0x86, 0xfd, 0xff, 0xff, 0x20, 0x00, 0x00, 0x00, 
  0x00, 0x00, 0x00, 0x08, 0x20, 0x00, 0x00, 0x00, 0x24, 0x00, 0x00, 0x00, 
  0x09, 0x00, 0x00, 0x00, 0x0c, 0x00, 0x08, 0x00, 0x07, 0x00, 0x00, 0x00, 
  0x00, 0x00, 0x06, 0x00, 0x0c, 0x00, 0x00, 0x00, 0x00, 0x00, 0x01, 0x01, 
  0x01, 0x00, 0x00, 0x00, 0x1d, 0x00, 0x00, 0x00, 0x03, 0x00, 0x00, 0x00, 
  0x1c, 0x00, 0x00, 0x00, 0x10, 0x00, 0x00, 0x00, 0x09, 0x00, 0x00, 0x00, 
  0xca, 0xfd, 0xff, 0xff, 0x14, 0x00, 0x00, 0x00, 0x00, 0x00, 0x00, 0x1b, 
  0x10, 0x00, 0x00, 0x00, 0x14, 0x00, 0x00, 0x00, 0x08, 0x00, 0x00, 0x00, 
  0x6c, 0xee, 0xff, 0xff, 0x01, 0x00, 0x00, 0x00, 0x1c, 0x00, 0x00, 0x00, 
  0x02, 0x00, 0x00, 0x00, 0x1b, 0x00, 0x00, 0x00, 0x08, 0x00, 0x00, 0x00, 
  0xfa, 0xfd, 0xff, 0xff, 0x14, 0x00, 0x00, 0x00, 0x00, 0x00, 0x00, 0x0a, 
  0x14, 0x00, 0x00, 0x00, 0x18, 0x00, 0x00, 0x00, 0x07, 0x00, 0x00, 0x00, 
  0x76, 0xfe, 0xff, 0xff, 0x02, 0x00, 0x00, 0x00, 0x01, 0x00, 0x00, 0x00, 
  0x1b, 0x00, 0x00, 0x00, 0x02, 0x00, 0x00, 0x00, 0x1a, 0x00, 0x00, 0x00, 
  0x00, 0x00, 0x00, 0x00, 0xda, 0xfe, 0xff, 0xff, 0x0c, 0x00, 0x00, 0x00, 
  0x10, 0x00, 0x00, 0x00, 0x04, 0x00, 0x00, 0x00, 0x01, 0x00, 0x00, 0x00, 
  0x1a, 0x00, 0x00, 0x00, 0x02, 0x00, 0x00, 0x00, 0x19, 0x00, 0x00, 0x00, 
  0x14, 0x00, 0x00, 0x00, 0x52, 0xfe, 0xff, 0xff, 0x24, 0x00, 0x00, 0x00, 
  0x00, 0x00, 0x00, 0x05, 0x34, 0x00, 0x00, 0x00, 0x38, 0x00, 0x00, 0x00, 
  0x06, 0x00, 0x00, 0x00, 0x00, 0x00, 0x0e, 0x00, 0x18, 0x00, 0x17, 0x00, 
  0x10, 0x00, 0x0c, 0x00, 0x08, 0x00, 0x04, 0x00, 0x0e, 0x00, 0x00, 0x00, 
  0x02, 0x00, 0x00, 0x00, 0x02, 0x00, 0x00, 0x00, 0x02, 0x00, 0x00, 0x00, 
  0x02, 0x00, 0x00, 0x00, 0x00, 0x00, 0x00, 0x01, 0x01, 0x00, 0x00, 0x00, 
  0x19, 0x00, 0x00, 0x00, 0x01, 0x00, 0x00, 0x00, 0x18, 0x00, 0x00, 0x00, 
  0xa2, 0xfe, 0xff, 0xff, 0x14, 0x00, 0x00, 0x00, 0x00, 0x00, 0x00, 0x01, 
  0x1c, 0x00, 0x00, 0x00, 0x20, 0x00, 0x00, 0x00, 0x05, 0x00, 0x00, 0x00, 
  0xc0, 0xff, 0xff, 0xff, 0x00, 0x00, 0x00, 0x01, 0x01, 0x00, 0x00, 0x00, 
  0x01, 0x00, 0x00, 0x00, 0x01, 0x00, 0x00, 0x00, 0x18, 0x00, 0x00, 0x00, 
  0x03, 0x00, 0x00, 0x00, 0x17, 0x00, 0x00, 0x00, 0x0d, 0x00, 0x00, 0x00, 
  0x0a, 0x00, 0x00, 0x00, 0xe2, 0xfe, 0xff, 0xff, 0x20, 0x00, 0x00, 0x00, 
  0x00, 0x00, 0x00, 0x01, 0x28, 0x00, 0x00, 0x00, 0x2c, 0x00, 0x00, 0x00, 
  0x05, 0x00, 0x00, 0x00, 0x0c, 0x00, 0x10, 0x00, 0x00, 0x00, 0x0c, 0x00, 
  0x08, 0x00, 0x07, 0x00, 0x0c, 0x00, 0x00, 0x00, 0x00, 0x00, 0x00, 0x01, 
  0x01, 0x00, 0x00, 0x00, 0x01, 0x00, 0x00, 0x00, 0x01, 0x00, 0x00, 0x00, 
  0x17, 0x00, 0x00, 0x00, 0x03, 0x00, 0x00, 0x00, 0x16, 0x00, 0x00, 0x00, 
  0x0e, 0x00, 0x00, 0x00, 0x0b, 0x00, 0x00, 0x00, 0xda, 0xff, 0xff, 0xff, 
  0x0c, 0x00, 0x00, 0x00, 0x10, 0x00, 0x00, 0x00, 0x04, 0x00, 0x00, 0x00, 
  0x01, 0x00, 0x00, 0x00, 0x16, 0x00, 0x00, 0x00, 0x02, 0x00, 0x00, 0x00, 
  0x15, 0x00, 0x00, 0x00, 0x07, 0x00, 0x00, 0x00, 0x00, 0x00, 0x0a, 0x00, 
  0x10, 0x00, 0x0c, 0x00, 0x08, 0x00, 0x04, 0x00, 0x0a, 0x00, 0x00, 0x00, 
  0x0c, 0x00, 0x00, 0x00, 0x10, 0x00, 0x00, 0x00, 0x03, 0x00, 0x00, 0x00, 
  0x01, 0x00, 0x00, 0x00, 0x15, 0x00, 0x00, 0x00, 0x02, 0x00, 0x00, 0x00, 
  0x01, 0x00, 0x00, 0x00, 0x02, 0x00, 0x00, 0x00, 0x82, 0xff, 0xff, 0xff, 
  0x1c, 0x00, 0x00, 0x00, 0x00, 0x00, 0x00, 0x3b, 0x1c, 0x00, 0x00, 0x00, 
  0x20, 0x00, 0x00, 0x00, 0x02, 0x00, 0x00, 0x00, 0x00, 0x00, 0x06, 0x00, 
  0x08, 0x00, 0x04, 0x00, 0x06, 0x00, 0x00, 0x00, 0x03, 0x00, 0x00, 0x00, 
  0x01, 0x00, 0x00, 0x00, 0x14, 0x00, 0x00, 0x00, 0x03, 0x00, 0x00, 0x00, 
  0x12, 0x00, 0x00, 0x00, 0x13, 0x00, 0x00, 0x00, 0x06, 0x00, 0x00, 0x00, 
  0xc2, 0xff, 0xff, 0xff, 0x14, 0x00, 0x00, 0x00, 0x00, 0x00, 0x00, 0x20, 
  0x14, 0x00, 0x00, 0x00, 0x18, 0x00, 0x00, 0x00, 0x01, 0x00, 0x00, 0x00, 
  0xb2, 0xff, 0xff, 0xff, 0x01, 0x00, 0x00, 0x00, 0x01, 0x00, 0x00, 0x00, 
  0x13, 0x00, 0x00, 0x00, 0x04, 0x00, 0x00, 0x00, 0x11, 0x00, 0x00, 0x00, 
  0x04, 0x00, 0x00, 0x00, 0x03, 0x00, 0x00, 0x00, 0x04, 0x00, 0x00, 0x00, 
  0x00, 0x00, 0x0e, 0x00, 0x1a, 0x00, 0x14, 0x00, 0x10, 0x00, 0x0c, 0x00, 
  0x0b, 0x00, 0x04, 0x00, 0x0e, 0x00, 0x00, 0x00, 0x24, 0x00, 0x00, 0x00, 
  0x00, 0x00, 0x00, 0x20, 0x24, 0x00, 0x00, 0x00, 0x28, 0x00, 0x00, 0x00, 
  0x01, 0x00, 0x00, 0x00, 0x00, 0x00, 0x0e, 0x00, 0x08, 0x00, 0x00, 0x00, 
  0x00, 0x00, 0x00, 0x00, 0x00, 0x00, 0x04, 0x00, 0x0e, 0x00, 0x00, 0x00, 
  0x01, 0x00, 0x00, 0x00, 0x01, 0x00, 0x00, 0x00, 0x12, 0x00, 0x00, 0x00, 
  0x04, 0x00, 0x00, 0x00, 0x11, 0x00, 0x00, 0x00, 0x05, 0x00, 0x00, 0x00, 
  0x04, 0x00, 0x00, 0x00, 0x04, 0x00, 0x00, 0x00, 0x00, 0x00, 0x0e, 0x00, 
  0x16, 0x00, 0x00, 0x00, 0x10, 0x00, 0x0c, 0x00, 0x0b, 0x00, 0x04, 0x00, 
  0x0e, 0x00, 0x00, 0x00, 0x18, 0x00, 0x00, 0x00, 0x00, 0x00, 0x00, 0x37, 
  0x18, 0x00, 0x00, 0x00, 0x1c, 0x00, 0x00, 0x00, 0x00, 0x00, 0x06, 0x00, 
  0x08, 0x00, 0x07, 0x00, 0x06, 0x00, 0x00, 0x00, 0x00, 0x00, 0x00, 0x02, 
  0x01, 0x00, 0x00, 0x00, 0x11, 0x00, 0x00, 0x00, 0x01, 0x00, 0x00, 0x00, 
  0x01, 0x00, 0x00, 0x00, 0x01, 0x00, 0x00, 0x00, 0x1f, 0x00, 0x00, 0x00, 
  0x02, 0x00, 0x00, 0x00, 0x00, 0x00, 0x00, 0x00, 0x01, 0x00, 0x00, 0x00, 
  0x20, 0x00, 0x00, 0x00, 0x94, 0x0e, 0x00, 0x00, 0x04, 0x0e, 0x00, 0x00, 
  0xc4, 0x0d, 0x00, 0x00, 0x6c, 0x0d, 0x00, 0x00, 0x2c, 0x0d, 0x00, 0x00, 
  0xec, 0x0c, 0x00, 0x00, 0xb0, 0x0c, 0x00, 0x00, 0x70, 0x0c, 0x00, 0x00, 
  0x34, 0x0c, 0x00, 0x00, 0xf8, 0x0b, 0x00, 0x00, 0xa4, 0x0b, 0x00, 0x00, 
  0x68, 0x0b, 0x00, 0x00, 0x28, 0x0b, 0x00, 0x00, 0xdc, 0x0a, 0x00, 0x00, 
  0x90, 0x0a, 0x00, 0x00, 0x4c, 0x0a, 0x00, 0x00, 0x68, 0x08, 0x00, 0x00, 
  0x0c, 0x08, 0x00, 0x00, 0xac, 0x07, 0x00, 0x00, 0x4c, 0x07, 0x00, 0x00, 
  0xe8, 0x06, 0x00, 0x00, 0x60, 0x06, 0x00, 0x00, 0xe4, 0x05, 0x00, 0x00, 
  0xbc, 0x04, 0x00, 0x00, 0x8c, 0x03, 0x00, 0x00, 0xfc, 0x02, 0x00, 0x00, 
  0x50, 0x02, 0x00, 0x00, 0xe4, 0x01, 0x00, 0x00, 0x74, 0x01, 0x00, 0x00, 
  0xe0, 0x00, 0x00, 0x00, 0x60, 0x00, 0x00, 0x00, 0x04, 0x00, 0x00, 0x00, 
  0x02, 0xf2, 0xff, 0xff, 0x00, 0x00, 0x00, 0x01, 0x14, 0x00, 0x00, 0x00, 
  0x1c, 0x00, 0x00, 0x00, 0x1c, 0x00, 0x00, 0x00, 0x20, 0x00, 0x00, 0x00, 
  0x34, 0x00, 0x00, 0x00, 0x02, 0x00, 0x00, 0x00, 0xff, 0xff, 0xff, 0xff, 
  0x02, 0x00, 0x00, 0x00, 0xe8, 0xf1, 0xff, 0xff, 0x1b, 0x00, 0x00, 0x00, 
  0x53, 0x74, 0x61, 0x74, 0x65, 0x66, 0x75, 0x6c, 0x50, 0x61, 0x72, 0x74, 
  0x69, 0x74, 0x69, 0x6f, 0x6e, 0x65, 0x64, 0x43, 0x61, 0x6c, 0x6c, 0x5f, 
  0x31, 0x3a, 0x30, 0x00, 0x02, 0x00, 0x00, 0x00, 0x01, 0x00, 0x00, 0x00, 
  0x02, 0x00, 0x00, 0x00, 0x5a, 0xf2, 0xff, 0xff, 0x00, 0x00, 0x00, 0x01, 
  0x14, 0x00, 0x00, 0x00, 0x1c, 0x00, 0x00, 0x00, 0x1c, 0x00, 0x00, 0x00, 
  0x1f, 0x00, 0x00, 0x00, 0x58, 0x00, 0x00, 0x00, 0x02, 0x00, 0x00, 0x00, 
  0xff, 0xff, 0xff, 0xff, 0x02, 0x00, 0x00, 0x00, 0x40, 0xf2, 0xff, 0xff, 
  0x3c, 0x00, 0x00, 0x00, 0x66, 0x75, 0x6e, 0x63, 0x74, 0x69, 0x6f, 0x6e, 
  0x61, 0x6c, 0x5f, 0x31, 0x2f, 0x64, 0x65, 0x6e, 0x73, 0x65, 0x5f, 0x31, 
  0x5f, 0x32, 0x2f, 0x4d, 0x61, 0x74, 0x4d, 0x75, 0x6c, 0x3b, 0x66, 0x75, 
  0x6e, 0x63, 0x74, 0x69, 0x6f, 0x6e, 0x61, 0x6c, 0x5f, 0x31, 0x2f, 0x64, 
  0x65, 0x6e, 0x73, 0x65, 0x5f, 0x31, 0x5f, 0x32, 0x2f, 0x42, 0x69, 0x61, 
  0x73, 0x41, 0x64, 0x64, 0x00, 0x00, 0x00, 0x00, 0x02, 0x00, 0x00, 0x00, 
  0x01, 0x00, 0x00, 0x00, 0x02, 0x00, 0x00, 0x00, 0xd6, 0xf2, 0xff, 0xff, 
  0x00, 0x00, 0x00, 0x01, 0x14, 0x00, 0x00, 0x00, 0x1c, 0x00, 0x00, 0x00, 
  0x1c, 0x00, 0x00, 0x00, 0x1e, 0x00, 0x00, 0x00, 0x6c, 0x00, 0x00, 0x00, 
  0x02, 0x00, 0x00, 0x00, 0xff, 0xff, 0xff, 0xff, 0x20, 0x00, 0x00, 0x00, 
  0xbc, 0xf2, 0xff, 0xff, 0x52, 0x00, 0x00, 0x00, 0x66, 0x75, 0x6e, 0x63, 
  0x74, 0x69, 0x6f, 0x6e, 0x61, 0x6c, 0x5f, 0x31, 0x2f, 0x64, 0x65, 0x6e, 
  0x73, 0x65, 0x5f, 0x31, 0x2f, 0x4d, 0x61, 0x74, 0x4d, 0x75, 0x6c, 0x3b, 
  0x66, 0x75, 0x6e, 0x63, 0x74, 0x69, 0x6f, 0x6e, 0x61, 0x6c, 0x5f, 0x31, 
  0x2f, 0x64, 0x65, 0x6e, 0x73, 0x65, 0x5f, 0x31, 0x2f, 0x52, 0x65, 0x6c, 
  0x75, 0x3b, 0x66, 0x75, 0x6e, 0x63, 0x74, 0x69, 0x6f, 0x6e, 0x61, 0x6c, 
  0x5f, 0x31, 0x2f, 0x64, 0x65, 0x6e, 0x73, 0x65, 0x5f, 0x31, 0x2f, 0x42, 
  0x69, 0x61, 0x73, 0x41, 0x64, 0x64, 0x00, 0x00, 0x02, 0x00, 0x00, 0x00, 
  0x01, 0x00, 0x00, 0x00, 0x20, 0x00, 0x00, 0x00, 0x66, 0xf3, 0xff, 0xff, 
  0x00, 0x00, 0x00, 0x01, 0x14, 0x00, 0x00, 0x00, 0x1c, 0x00, 0x00, 0x00, 
  0x1c, 0x00, 0x00, 0x00, 0x1d, 0x00, 0x00, 0x00, 0x48, 0x00, 0x00, 0x00, 
  0x02, 0x00, 0x00, 0x00, 0xff, 0xff, 0xff, 0xff, 0x8c, 0x00, 0x00, 0x00, 
  0x4c, 0xf3, 0xff, 0xff, 0x2c, 0x00, 0x00, 0x00, 0x66, 0x75, 0x6e, 0x63, 
  0x74, 0x69, 0x6f, 0x6e, 0x61, 0x6c, 0x5f, 0x31, 0x2f, 0x67, 0x6c, 0x6f, 
  0x62, 0x61, 0x6c, 0x5f, 0x61, 0x76, 0x65, 0x72, 0x61, 0x67, 0x65, 0x5f, 
  0x70, 0x6f, 0x6f, 0x6c, 0x69, 0x6e, 0x67, 0x31, 0x64, 0x5f, 0x31, 0x2f, 
  0x4d, 0x65, 0x61, 0x6e, 0x00, 0x00, 0x00, 0x00, 0x02, 0x00, 0x00, 0x00, 
  0x01, 0x00, 0x00, 0x00, 0x8c, 0x00, 0x00, 0x00, 0xd2, 0xf3, 0xff, 0xff, 
  0x00, 0x00, 0x00, 0x01, 0x14, 0x00, 0x00, 0x00, 0x20, 0x00, 0x00, 0x00, 
  0x20, 0x00, 0x00, 0x00, 0x1c, 0x00, 0x00, 0x00, 0x40, 0x00, 0x00, 0x00, 
  0x03, 0x00, 0x00, 0x00, 0xff, 0xff, 0xff, 0xff, 0xff, 0xff, 0xff, 0xff, 
  0x8c, 0x00, 0x00, 0x00, 0xbc, 0xf3, 0xff, 0xff, 0x21, 0x00, 0x00, 0x00, 
  0x66, 0x75, 0x6e, 0x63, 0x74, 0x69, 0x6f, 0x6e, 0x61, 0x6c, 0x5f, 0x31, 
  0x2f, 0x63, 0x6f, 0x6e, 0x63, 0x61, 0x74, 0x65, 0x6e, 0x61, 0x74, 0x65, 
  0x5f, 0x31, 0x2f, 0x63, 0x6f, 0x6e, 0x63, 0x61, 0x74, 0x00, 0x00, 0x00, 
  0x03, 0x00, 0x00, 0x00, 0x01, 0x00, 0x00, 0x00, 0x01, 0x00, 0x00, 0x00, 
  0x8c, 0x00, 0x00, 0x00, 0x3a, 0xf4, 0xff, 0xff, 0x00, 0x00, 0x00, 0x01, 
  0x14, 0x00, 0x00, 0x00, 0x20, 0x00, 0x00, 0x00, 0x20, 0x00, 0x00, 0x00, 
  0x1b, 0x00, 0x00, 0x00, 0x80, 0x00, 0x00, 0x00, 0x03, 0x00, 0x00, 0x00, 
  0xff, 0xff, 0xff, 0xff, 0xff, 0xff, 0xff, 0xff, 0x80, 0x00, 0x00, 0x00, 
  0x24, 0xf4, 0xff, 0xff, 0x63, 0x00, 0x00, 0x00, 0x66, 0x75, 0x6e, 0x63, 
  0x74, 0x69, 0x6f, 0x6e, 0x61, 0x6c, 0x5f, 0x31, 0x2f, 0x74, 0x69, 0x6d, 
  0x65, 0x5f, 0x64, 0x69, 0x73, 0x74, 0x72, 0x69, 0x62, 0x75, 0x74, 0x65, 
  0x64, 0x5f, 0x63, 0x6e, 0x6e, 0x5f, 0x31, 0x2f, 0x52, 0x65, 0x73, 0x68, 
  0x61, 0x70, 0x65, 0x5f, 0x31, 0x3b, 0x66, 0x75, 0x6e, 0x63, 0x74, 0x69, 
  0x6f, 0x6e, 0x61, 0x6c, 0x5f, 0x31, 0x2f, 0x74, 0x69, 0x6d, 0x65, 0x5f, 
  0x64, 0x69, 0x73, 0x74, 0x72, 0x69, 0x62, 0x75, 0x74, 0x65, 0x64, 0x5f, 
  0x63, 0x6e, 0x6e, 0x5f, 0x31, 0x2f, 0x66, 0x6c, 0x61, 0x74, 0x74, 0x65, 
  0x6e, 0x5f, 0x31, 0x2f, 0x52, 0x65, 0x73, 0x68, 0x61, 0x70, 0x65, 0x00, 
  0x03, 0x00, 0x00, 0x00, 0x01, 0x00, 0x00, 0x00, 0x01, 0x00, 0x00, 0x00, 
  0x80, 0x00, 0x00, 0x00, 0xe2, 0xf4, 0xff, 0xff, 0x00, 0x00, 0x00, 0x01, 
  0x14, 0x00, 0x00, 0x00, 0x24, 0x00, 0x00, 0x00, 0x24, 0x00, 0x00, 0x00, 
  0x1a, 0x00, 0x00, 0x00, 0x60, 0x00, 0x00, 0x00, 0x04, 0x00, 0x00, 0x00, 
  0xff, 0xff, 0xff, 0xff, 0x04, 0x00, 0x00, 0x00, 0x04, 0x00, 0x00, 0x00, 
  0x08, 0x00, 0x00, 0x00, 0xd0, 0xf4, 0xff, 0xff, 0x3d, 0x00, 0x00, 0x00, 
  0x66, 0x75, 0x6e, 0x63, 0x74, 0x69, 0x6f, 0x6e, 0x61, 0x6c, 0x5f, 0x31, 
  0x2f, 0x74, 0x69, 0x6d, 0x65, 0x5f, 0x64, 0x69, 0x73, 0x74, 0x72, 0x69, 
  0x62, 0x75, 0x74, 0x65, 0x64, 0x5f, 0x63, 0x6e, 0x6e, 0x5f, 0x31, 0x2f, 
  0x6d, 0x61, 0x78, 0x5f, 0x70, 0x6f, 0x6f, 0x6c, 0x69, 0x6e, 0x67, 0x32, 
  0x64, 0x5f, 0x31, 0x2f, 0x4d, 0x61, 0x78, 0x50, 0x6f, 0x6f, 0x6c, 0x32, 
  0x64, 0x00, 0x00, 0x00, 0x04, 0x00, 0x00, 0x00, 0x01, 0x00, 0x00, 0x00, 
  0x04, 0x00, 0x00, 0x00, 0x04, 0x00, 0x00, 0x00, 0x08, 0x00, 0x00, 0x00, 
  0x6e, 0xf5, 0xff, 0xff, 0x00, 0x00, 0x00, 0x01, 0x14, 0x00, 0x00, 0x00, 
  0x24, 0x00, 0x00, 0x00, 0x24, 0x00, 0x00, 0x00, 0x19, 0x00, 0x00, 0x00, 
  0x00, 0x01, 0x00, 0x00, 0x04, 0x00, 0x00, 0x00, 0xff, 0xff, 0xff, 0xff, 
  0x08, 0x00, 0x00, 0x00, 0x08, 0x00, 0x00, 0x00, 0x08, 0x00, 0x00, 0x00, 
  0x5c, 0xf5, 0xff, 0xff, 0xdc, 0x00, 0x00, 0x00, 0x66, 0x75, 0x6e, 0x63, 
  0x74, 0x69, 0x6f, 0x6e, 0x61, 0x6c, 0x5f, 0x31, 0x2f, 0x74, 0x69, 0x6d, 
  0x65, 0x5f, 0x64, 0x69, 0x73, 0x74, 0x72, 0x69, 0x62, 0x75, 0x74, 0x65, 
  0x64, 0x5f, 0x63, 0x6e, 0x6e, 0x5f, 0x31, 0x2f, 0x63, 0x6f, 0x6e, 0x76, 
  0x32, 0x64, 0x5f, 0x31, 0x5f, 0x32, 0x2f, 0x52, 0x65, 0x6c, 0x75, 0x3b, 
  0x66, 0x75, 0x6e, 0x63, 0x74, 0x69, 0x6f, 0x6e, 0x61, 0x6c, 0x5f, 0x31, 
  0x2f, 0x74, 0x69, 0x6d, 0x65, 0x5f, 0x64, 0x69, 0x73, 0x74, 0x72, 0x69, 
  0x62, 0x75, 0x74, 0x65, 0x64, 0x5f, 0x63, 0x6e, 0x6e, 0x5f, 0x31, 0x2f, 
  0x63, 0x6f, 0x6e, 0x76, 0x32, 0x64, 0x5f, 0x31, 0x5f, 0x32, 0x2f, 0x42, 
  0x69, 0x61, 0x73, 0x41, 0x64, 0x64, 0x3b, 0x66, 0x75, 0x6e, 0x63, 0x74, 
  0x69, 0x6f, 0x6e, 0x61, 0x6c, 0x5f, 0x31, 0x2f, 0x74, 0x69, 0x6d, 0x65, 
  0x5f, 0x64, 0x69, 0x73, 0x74, 0x72, 0x69, 0x62, 0x75, 0x74, 0x65, 0x64, 
  0x5f, 0x63, 0x6e, 0x6e, 0x5f, 0x31, 0x2f, 0x63, 0x6f, 0x6e, 0x76, 0x32, 
  0x64, 0x5f, 0x31, 0x5f, 0x32, 0x2f, 0x63, 0x6f, 0x6e, 0x76, 0x6f, 0x6c, 
  0x75, 0x74, 0x69, 0x6f, 0x6e, 0x3b, 0x66, 0x75, 0x6e, 0x63, 0x74, 0x69, 
  0x6f, 0x6e, 0x61, 0x6c, 0x5f, 0x31, 0x2f, 0x74, 0x69, 0x6d, 0x65, 0x5f, 
  0x64, 0x69, 0x73, 0x74, 0x72, 0x69, 0x62, 0x75, 0x74, 0x65, 0x64, 0x5f, 
  0x63, 0x6e, 0x6e, 0x5f, 0x31, 0x2f, 0x63, 0x6f, 0x6e, 0x76, 0x32, 0x64, 
  0x5f, 0x31, 0x5f, 0x32, 0x2f, 0x53, 0x71, 0x75, 0x65, 0x65, 0x7a, 0x65, 
  0x00, 0x00, 0x00, 0x00, 0x04, 0x00, 0x00, 0x00, 0x01, 0x00, 0x00, 0x00, 
  0x08, 0x00, 0x00, 0x00, 0x08, 0x00, 0x00, 0x00, 0x08, 0x00, 0x00, 0x00, 
  0x9a, 0xf6, 0xff, 0xff, 0x00, 0x00, 0x00, 0x01, 0x14, 0x00, 0x00, 0x00, 
  0x24, 0x00, 0x00, 0x00, 0x24, 0x00, 0x00, 0x00, 0x18, 0x00, 0x00, 0x00, 
  0xf8, 0x00, 0x00, 0x00, 0x04, 0x00, 0x00, 0x00, 0xff, 0xff, 0xff, 0xff, 
  0x08, 0x00, 0x00, 0x00, 0x08, 0x00, 0x00, 0x00, 0x04, 0x00, 0x00, 0x00, 
  0x88, 0xf6, 0xff, 0xff, 0xd4, 0x00, 0x00, 0x00, 0x66, 0x75, 0x6e, 0x63, 
  0x74, 0x69, 0x6f, 0x6e, 0x61, 0x6c, 0x5f, 0x31, 0x2f, 0x74, 0x69, 0x6d, 
  0x65, 0x5f, 0x64, 0x69, 0x73, 0x74, 0x72, 0x69, 0x62, 0x75, 0x74, 0x65, 
  0x64, 0x5f, 0x63, 0x6e, 0x6e, 0x5f, 0x31, 0x2f, 0x63, 0x6f, 0x6e, 0x76, 
  0x32, 0x64, 0x5f, 0x31, 0x2f, 0x52, 0x65, 0x6c, 0x75, 0x3b, 0x66, 0x75, 
  0x6e, 0x63, 0x74, 0x69, 0x6f, 0x6e, 0x61, 0x6c, 0x5f, 0x31, 0x2f, 0x74, 
  0x69, 0x6d, 0x65, 0x5f, 0x64, 0x69, 0x73, 0x74, 0x72, 0x69, 0x62, 0x75, 
  0x74, 0x65, 0x64, 0x5f, 0x63, 0x6e, 0x6e, 0x5f, 0x31, 0x2f, 0x63, 0x6f, 
  0x6e, 0x76, 0x32, 0x64, 0x5f, 0x31, 0x2f, 0x42, 0x69, 0x61, 0x73, 0x41, 
  0x64, 0x64, 0x3b, 0x66, 0x75, 0x6e, 0x63, 0x74, 0x69, 0x6f, 0x6e, 0x61, 
  0x6c, 0x5f, 0x31, 0x2f, 0x74, 0x69, 0x6d, 0x65, 0x5f, 0x64, 0x69, 0x73, 
  0x74, 0x72, 0x69, 0x62, 0x75, 0x74, 0x65, 0x64, 0x5f, 0x63, 0x6e, 0x6e, 
  0x5f, 0x31, 0x2f, 0x63, 0x6f, 0x6e, 0x76, 0x32, 0x64, 0x5f, 0x31, 0x2f, 
  0x63, 0x6f, 0x6e, 0x76, 0x6f, 0x6c, 0x75, 0x74, 0x69, 0x6f, 0x6e, 0x3b, 
  0x66, 0x75, 0x6e, 0x63, 0x74, 0x69, 0x6f, 0x6e, 0x61, 0x6c, 0x5f, 0x31, 
  0x2f, 0x74, 0x69, 0x6d, 0x65, 0x5f, 0x64, 0x69, 0x73, 0x74, 0x72, 0x69, 
  0x62, 0x75, 0x74, 0x65, 0x64, 0x5f, 0x63, 0x6e, 0x6e, 0x5f, 0x31, 0x2f, 
  0x63, 0x6f, 0x6e, 0x76, 0x32, 0x64, 0x5f, 0x31, 0x2f, 0x53, 0x71, 0x75, 
  0x65, 0x65, 0x7a, 0x65, 0x00, 0x00, 0x00, 0x00, 0x04, 0x00, 0x00, 0x00, 
  0x01, 0x00, 0x00, 0x00, 0x08, 0x00, 0x00, 0x00, 0x08, 0x00, 0x00, 0x00, 
  0x04, 0x00, 0x00, 0x00, 0xbe, 0xf7, 0xff, 0xff, 0x00, 0x00, 0x00, 0x01, 
  0x14, 0x00, 0x00, 0x00, 0x24, 0x00, 0x00, 0x00, 0x24, 0x00, 0x00, 0x00, 
  0x17, 0x00, 0x00, 0x00, 0x4c, 0x00, 0x00, 0x00, 0x04, 0x00, 0x00, 0x00, 
  0xff, 0xff, 0xff, 0xff, 0x08, 0x00, 0x00, 0x00, 0x08, 0x00, 0x00, 0x00, 
  0x03, 0x00, 0x00, 0x00, 0xac, 0xf7, 0xff, 0xff, 0x2b, 0x00, 0x00, 0x00, 
  0x66, 0x75, 0x6e, 0x63, 0x74, 0x69, 0x6f, 0x6e, 0x61, 0x6c, 0x5f, 0x31, 
  0x2f, 0x74, 0x69, 0x6d, 0x65, 0x5f, 0x64, 0x69, 0x73, 0x74, 0x72, 0x69, 
  0x62, 0x75, 0x74, 0x65, 0x64, 0x5f, 0x63, 0x6e, 0x6e, 0x5f, 0x31, 0x2f, 
  0x52, 0x65, 0x73, 0x68, 0x61, 0x70, 0x65, 0x00, 0x04, 0x00, 0x00, 0x00, 
  0x01, 0x00, 0x00, 0x00, 0x08, 0x00, 0x00, 0x00, 0x08, 0x00, 0x00, 0x00, 
  0x03, 0x00, 0x00, 0x00, 0x36, 0xf8, 0xff, 0xff, 0x00, 0x00, 0x00, 0x01, 
  0x14, 0x00, 0x00, 0x00, 0x28, 0x00, 0x00, 0x00, 0x28, 0x00, 0x00, 0x00, 
  0x16, 0x00, 0x00, 0x00, 0x54, 0x00, 0x00, 0x00, 0x05, 0x00, 0x00, 0x00, 
  0xff, 0xff, 0xff, 0xff, 0xff, 0xff, 0xff, 0xff, 0x08, 0x00, 0x00, 0x00, 
  0x08, 0x00, 0x00, 0x00, 0x03, 0x00, 0x00, 0x00, 0x28, 0xf8, 0xff, 0xff, 
  0x2d, 0x00, 0x00, 0x00, 0x66, 0x75, 0x6e, 0x63, 0x74, 0x69, 0x6f, 0x6e, 
  0x61, 0x6c, 0x5f, 0x31, 0x2f, 0x74, 0x69, 0x6d, 0x65, 0x5f, 0x64, 0x69, 
  0x73, 0x74, 0x72, 0x69, 0x62, 0x75, 0x74, 0x65, 0x64, 0x5f, 0x63, 0x6e, 
  0x6e, 0x5f, 0x31, 0x2f, 0x74, 0x72, 0x61, 0x6e, 0x73, 0x70, 0x6f, 0x73, 
  0x65, 0x00, 0x00, 0x00, 0x05, 0x00, 0x00, 0x00, 0x01, 0x00, 0x00, 0x00, 
  0x01, 0x00, 0x00, 0x00, 0x08, 0x00, 0x00, 0x00, 0x08, 0x00, 0x00, 0x00, 
  0x03, 0x00, 0x00, 0x00, 0x82, 0xf9, 0xff, 0xff, 0x00, 0x00, 0x00, 0x01, 
  0x14, 0x00, 0x00, 0x00, 0x14, 0x00, 0x00, 0x00, 0x15, 0x00, 0x00, 0x00, 
  0x00, 0x00, 0x00, 0x02, 0x40, 0x00, 0x00, 0x00, 0x94, 0xf8, 0xff, 0xff, 
  0x33, 0x00, 0x00, 0x00, 0x66, 0x75, 0x6e, 0x63, 0x74, 0x69, 0x6f, 0x6e, 
  0x61, 0x6c, 0x5f, 0x31, 0x2f, 0x74, 0x69, 0x6d, 0x65, 0x5f, 0x64, 0x69, 
  0x73, 0x74, 0x72, 0x69, 0x62, 0x75, 0x74, 0x65, 0x64, 0x5f, 0x63, 0x6e, 
  0x6e, 0x5f, 0x31, 0x2f, 0x52, 0x65, 0x73, 0x68, 0x61, 0x70, 0x65, 0x5f, 
  0x31, 0x2f, 0x73, 0x68, 0x61, 0x70, 0x65, 0x00, 0x01, 0x00, 0x00, 0x00, 
  0x03, 0x00, 0x00, 0x00, 0xe2, 0xf9, 0xff, 0xff, 0x00, 0x00, 0x00, 0x01, 
  0x14, 0x00, 0x00, 0x00, 0x14, 0x00, 0x00, 0x00, 0x14, 0x00, 0x00, 0x00, 
  0x00, 0x00, 0x00, 0x02, 0x40, 0x00, 0x00, 0x00, 0xf4, 0xf8, 0xff, 0xff, 
  0x33, 0x00, 0x00, 0x00, 0x66, 0x75, 0x6e, 0x63, 0x74, 0x69, 0x6f, 0x6e, 
  0x61, 0x6c, 0x5f, 0x31, 0x2f, 0x74, 0x69, 0x6d, 0x65, 0x5f, 0x64, 0x69, 
  0x73, 0x74, 0x72, 0x69, 0x62, 0x75, 0x74, 0x65, 0x64, 0x5f, 0x63, 0x6e, 
  0x6e, 0x5f, 0x31, 0x2f, 0x73, 0x74, 0x72, 0x69, 0x64, 0x65, 0x64, 0x5f, 
  0x73, 0x6c, 0x69, 0x63, 0x65, 0x5f, 0x31, 0x00, 0x00, 0x00, 0x00, 0x00, 
  0x3e, 0xfa, 0xff, 0xff, 0x00, 0x00, 0x00, 0x01, 0x14, 0x00, 0x00, 0x00, 
  0x14, 0x00, 0x00, 0x00, 0x13, 0x00, 0x00, 0x00, 0x00, 0x00, 0x00, 0x02, 
  0x40, 0x00, 0x00, 0x00, 0x50, 0xf9, 0xff, 0xff, 0x31, 0x00, 0x00, 0x00, 
  0x66, 0x75, 0x6e, 0x63, 0x74, 0x69, 0x6f, 0x6e, 0x61, 0x6c, 0x5f, 0x31, 
  0x2f, 0x74, 0x69, 0x6d, 0x65, 0x5f, 0x64, 0x69, 0x73, 0x74, 0x72, 0x69, 
  0x62, 0x75, 0x74, 0x65, 0x64, 0x5f, 0x63, 0x6e, 0x6e, 0x5f, 0x31, 0x2f, 
  0x73, 0x74, 0x72, 0x69, 0x64, 0x65, 0x64, 0x5f, 0x73, 0x6c, 0x69, 0x63, 
  0x65, 0x00, 0x00, 0x00, 0x00, 0x00, 0x00, 0x00, 0x9a, 0xfa, 0xff, 0xff, 
  0x00, 0x00, 0x00, 0x01, 0x14, 0x00, 0x00, 0x00, 0x14, 0x00, 0x00, 0x00, 
  0x12, 0x00, 0x00, 0x00, 0x00, 0x00, 0x00, 0x02, 0x38, 0x00, 0x00, 0x00, 
  0xac, 0xf9, 0xff, 0xff, 0x29, 0x00, 0x00, 0x00, 0x66, 0x75, 0x6e, 0x63, 
  0x74, 0x69, 0x6f, 0x6e, 0x61, 0x6c, 0x5f, 0x31, 0x2f, 0x74, 0x69, 0x6d, 
  0x65, 0x5f, 0x64, 0x69, 0x73, 0x74, 0x72, 0x69, 0x62, 0x75, 0x74, 0x65, 
  0x64, 0x5f, 0x63, 0x6e, 0x6e, 0x5f, 0x31, 0x2f, 0x53, 0x68, 0x61, 0x70, 
  0x65, 0x00, 0x00, 0x00, 0x01, 0x00, 0x00, 0x00, 0x05, 0x00, 0x00, 0x00, 
  0xf2, 0xfa, 0xff, 0xff, 0x00, 0x00, 0x00, 0x01, 0x20, 0x00, 0x00, 0x00, 
  0xb0, 0x01, 0x00, 0x00, 0x11, 0x00, 0x00, 0x00, 0x00, 0x00, 0x00, 0x09, 
  0xbc, 0x01, 0x00, 0x00, 0x0c, 0x00, 0x0c, 0x00, 0x00, 0x00, 0x00, 0x00, 
  0x08, 0x00, 0x04, 0x00, 0x0c, 0x00, 0x00, 0x00, 0x08, 0x00, 0x00, 0x00, 
  0x08, 0x01, 0x00, 0x00, 0x20, 0x00, 0x00, 0x00, 0x00, 0x00, 0x00, 0x00, 
  0x00, 0x00, 0x00, 0x00, 0x00, 0x00, 0x00, 0x00, 0x00, 0x00, 0x00, 0x00, 
  0x00, 0x00, 0x00, 0x00, 0x00, 0x00, 0x00, 0x00, 0x00, 0x00, 0x00, 0x00, 
  0x00, 0x00, 0x00, 0x00, 0x00, 0x00, 0x00, 0x00, 0x00, 0x00, 0x00, 0x00, 
  0x00, 0x00, 0x00, 0x00, 0x00, 0x00, 0x00, 0x00, 0x00, 0x00, 0x00, 0x00, 
  0x00, 0x00, 0x00, 0x00, 0x00, 0x00, 0x00, 0x00, 0x00, 0x00, 0x00, 0x00, 
  0x00, 0x00, 0x00, 0x00, 0x00, 0x00, 0x00, 0x00, 0x00, 0x00, 0x00, 0x00, 
  0x00, 0x00, 0x00, 0x00, 0x00, 0x00, 0x00, 0x00, 0x00, 0x00, 0x00, 0x00, 
  0x00, 0x00, 0x00, 0x00, 0x00, 0x00, 0x00, 0x00, 0x00, 0x00, 0x00, 0x00, 
  0x00, 0x00, 0x00, 0x00, 0x00, 0x00, 0x00, 0x00, 0x00, 0x00, 0x00, 0x00, 
  0x00, 0x00, 0x00, 0x00, 0x00, 0x00, 0x00, 0x00, 0x00, 0x00, 0x00, 0x00, 
  0x00, 0x00, 0x00, 0x00, 0x00, 0x00, 0x00, 0x00, 0x00, 0x00, 0x00, 0x00, 
  0x00, 0x00, 0x00, 0x00, 0x00, 0x00, 0x00, 0x00, 0x00, 0x00, 0x00, 0x00, 
  0x00, 0x00, 0x00, 0x00, 0x00, 0x00, 0x00, 0x00, 0x00, 0x00, 0x00, 0x00, 
  0x00, 0x00, 0x00, 0x00, 0x00, 0x00, 0x00, 0x00, 0x00, 0x00, 0x00, 0x00, 
  0x00, 0x00, 0x00, 0x00, 0x00, 0x00, 0x00, 0x00, 0x00, 0x00, 0x00, 0x00, 
  0x00, 0x00, 0x00, 0x00, 0x00, 0x00, 0x00, 0x00, 0x00, 0x00, 0x00, 0x00, 
  0x00, 0x00, 0x00, 0x00, 0x00, 0x00, 0x00, 0x00, 0x00, 0x00, 0x00, 0x00, 
  0x00, 0x00, 0x00, 0x00, 0x00, 0x00, 0x00, 0x00, 0x00, 0x00, 0x00, 0x00, 
  0x00, 0x00, 0x00, 0x00, 0x00, 0x00, 0x00, 0x00, 0x00, 0x00, 0x00, 0x00, 
  0x00, 0x00, 0x00, 0x00, 0x00, 0x00, 0x00, 0x00, 0x00, 0x00, 0x00, 0x00, 
  0x00, 0x00, 0x00, 0x00, 0x00, 0x00, 0x00, 0x00, 0x00, 0x00, 0x00, 0x00, 
  0x20, 0x00, 0x00, 0x00, 0x46, 0xf4, 0x46, 0x3a, 0xd0, 0xdf, 0xed, 0x3a, 
  0x57, 0x1a, 0xe6, 0x3a, 0x5a, 0x36, 0xca, 0x3a, 0x99, 0x40, 0x57, 0x3a, 
  0xea, 0x95, 0x13, 0x3b, 0x5f, 0x9f, 0x2b, 0x3a, 0x8c, 0xf1, 0x36, 0x3a, 
  0x18, 0x8c, 0xff, 0x3a, 0x48, 0xb7, 0x42, 0x3a, 0x1e, 0x7a, 0xe8, 0x3a, 
  0x53, 0xdc, 0x1f, 0x3b, 0xea, 0x23, 0x2e, 0x3a, 0x25, 0xe6, 0x56, 0x3a, 
  0xdb, 0xb4, 0x0b, 0x3b, 0x06, 0x1f, 0x06, 0x3b, 0x74, 0x6b, 0x2b, 0x3a, 
  0x73, 0x92, 0x0b, 0x3b, 0xdc, 0x2e, 0x2b, 0x3b, 0x25, 0x5f, 0x25, 0x3b, 
  0xfb, 0x28, 0x3f, 0x3a, 0x8a, 0x09, 0xf9, 0x3a, 0xbe, 0x65, 0x02, 0x3b, 
  0x75, 0xc1, 0x38, 0x3a, 0x1b, 0x57, 0xe7, 0x3a, 0xc6, 0x0e, 0x2e, 0x3a, 
  0x6f, 0x76, 0x00, 0x3b, 0x32, 0x0f, 0x2e, 0x3a, 0x2b, 0x72, 0x04, 0x3b, 
  0x5f, 0x61, 0x37, 0x3a, 0x77, 0xcb, 0xdb, 0x3a, 0x83, 0x7c, 0x3d, 0x3a, 
  0x11, 0x00, 0x00, 0x00, 0x74, 0x66, 0x6c, 0x2e, 0x70, 0x73, 0x65, 0x75, 
  0x64, 0x6f, 0x5f, 0x71, 0x63, 0x6f, 0x6e, 0x73, 0x74, 0x00, 0x00, 0x00, 
  0x02, 0x00, 0x00, 0x00, 0x20, 0x00, 0x00, 0x00, 0x8c, 0x00, 0x00, 0x00, 
  0x82, 0xfe, 0xff, 0xff, 0x00, 0x00, 0x00, 0x01, 0x10, 0x00, 0x00, 0x00, 
  0x10, 0x00, 0x00, 0x00, 0x10, 0x00, 0x00, 0x00, 0x20, 0x00, 0x00, 0x00, 
  0xe0, 0xfb, 0xff, 0xff, 0x10, 0x00, 0x00, 0x00, 0x61, 0x72, 0x69, 0x74, 
  0x68, 0x2e, 0x63, 0x6f, 0x6e, 0x73, 0x74, 0x61, 0x6e, 0x74, 0x31, 0x33, 
  0x00, 0x00, 0x00, 0x00, 0x02, 0x00, 0x00, 0x00, 0x02, 0x00, 0x00, 0x00, 
  0x20, 0x00, 0x00, 0x00, 0xc2, 0xfe, 0xff, 0xff, 0x00, 0x00, 0x00, 0x01, 
  0x10, 0x00, 0x00, 0x00, 0x10, 0x00, 0x00, 0x00, 0x0f, 0x00, 0x00, 0x00, 
  0x20, 0x00, 0x00, 0x00, 0x20, 0xfc, 0xff, 0xff, 0x10, 0x00, 0x00, 0x00, 
  0x61, 0x72, 0x69, 0x74, 0x68, 0x2e, 0x63, 0x6f, 0x6e, 0x73, 0x74, 0x61, 
  0x6e, 0x74, 0x31, 0x32, 0x00, 0x00, 0x00, 0x00, 0x04, 0x00, 0x00, 0x00, 
  0x04, 0x00, 0x00, 0x00, 0x03, 0x00, 0x00, 0x00, 0x03, 0x00, 0x00, 0x00, 
  0x03, 0x00, 0x00, 0x00, 0x0a, 0xff, 0xff, 0xff, 0x00, 0x00, 0x00, 0x01, 
  0x10, 0x00, 0x00, 0x00, 0x10, 0x00, 0x00, 0x00, 0x0e, 0x00, 0x00, 0x00, 
  0x20, 0x00, 0x00, 0x00, 0x68, 0xfc, 0xff, 0xff, 0x10, 0x00, 0x00, 0x00, 
  0x61, 0x72, 0x69, 0x74, 0x68, 0x2e, 0x63, 0x6f, 0x6e, 0x73, 0x74, 0x61, 
  0x6e, 0x74, 0x31, 0x31, 0x00, 0x00, 0x00, 0x00, 0x04, 0x00, 0x00, 0x00, 
  0x08, 0x00, 0x00, 0x00, 0x03, 0x00, 0x00, 0x00, 0x03, 0x00, 0x00, 0x00, 
  0x04, 0x00, 0x00, 0x00, 0x52, 0xff, 0xff, 0xff, 0x00, 0x00, 0x00, 0x01, 
  0x10, 0x00, 0x00, 0x00, 0x10, 0x00, 0x00, 0x00, 0x0d, 0x00, 0x00, 0x00, 
  0x20, 0x00, 0x00, 0x00, 0xb0, 0xfc, 0xff, 0xff, 0x10, 0x00, 0x00, 0x00, 
  0x61, 0x72, 0x69, 0x74, 0x68, 0x2e, 0x63, 0x6f, 0x6e, 0x73, 0x74, 0x61, 
  0x6e, 0x74, 0x31, 0x30, 0x00, 0x00, 0x00, 0x00, 0x01, 0x00, 0x00, 0x00, 
  0x02, 0x00, 0x00, 0x00, 0x8e, 0xff, 0xff, 0xff, 0x00, 0x00, 0x00, 0x01, 
  0x10, 0x00, 0x00, 0x00, 0x10, 0x00, 0x00, 0x00, 0x0c, 0x00, 0x00, 0x00, 
  0x1c, 0x00, 0x00, 0x00, 0xec, 0xfc, 0xff, 0xff, 0x0f, 0x00, 0x00, 0x00, 
  0x61, 0x72, 0x69, 0x74, 0x68, 0x2e, 0x63, 0x6f, 0x6e, 0x73, 0x74, 0x61, 
  0x6e, 0x74, 0x39, 0x00, 0x01, 0x00, 0x00, 0x00, 0x04, 0x00, 0x00, 0x00, 
  0xc6, 0xff, 0xff, 0xff, 0x00, 0x00, 0x00, 0x01, 0x10, 0x00, 0x00, 0x00, 
  0x10, 0x00, 0x00, 0x00, 0x0b, 0x00, 0x00, 0x00, 0x1c, 0x00, 0x00, 0x00, 
  0x24, 0xfd, 0xff, 0xff, 0x0f, 0x00, 0x00, 0x00, 0x61, 0x72, 0x69, 0x74, 
  0x68, 0x2e, 0x63, 0x6f, 0x6e, 0x73, 0x74, 0x61, 0x6e, 0x74, 0x38, 0x00, 
  0x01, 0x00, 0x00, 0x00, 0x08, 0x00, 0x00, 0x00, 0x00, 0x00, 0x16, 0x00, 
  0x18, 0x00, 0x14, 0x00, 0x00, 0x00, 0x10, 0x00, 0x0c, 0x00, 0x08, 0x00, 
  0x00, 0x00, 0x00, 0x00, 0x00, 0x00, 0x07, 0x00, 0x16, 0x00, 0x00, 0x00, 
  0x00, 0x00, 0x00, 0x01, 0x10, 0x00, 0x00, 0x00, 0x10, 0x00, 0x00, 0x00, 
  0x0a, 0x00, 0x00, 0x00, 0x1c, 0x00, 0x00, 0x00, 0x74, 0xfd, 0xff, 0xff, 
  0x0f, 0x00, 0x00, 0x00, 0x61, 0x72, 0x69, 0x74, 0x68, 0x2e, 0x63, 0x6f, 
  0x6e, 0x73, 0x74, 0x61, 0x6e, 0x74, 0x37, 0x00, 0x01, 0x00, 0x00, 0x00, 
  0x20, 0x00, 0x00, 0x00, 0x9e, 0xfe, 0xff, 0xff, 0x00, 0x00, 0x00, 0x01, 
  0x14, 0x00, 0x00, 0x00, 0x14, 0x00, 0x00, 0x00, 0x05, 0x00, 0x00, 0x00, 
  0x00, 0x00, 0x00, 0x02, 0x1c, 0x00, 0x00, 0x00, 0xb0, 0xfd, 0xff, 0xff, 
  0x0f, 0x00, 0x00, 0x00, 0x61, 0x72, 0x69, 0x74, 0x68, 0x2e, 0x63, 0x6f, 
  0x6e, 0x73, 0x74, 0x61, 0x6e, 0x74, 0x36, 0x00, 0x00, 0x00, 0x00, 0x00, 
  0xd6, 0xfe, 0xff, 0xff, 0x00, 0x00, 0x00, 0x01, 0x14, 0x00, 0x00, 0x00, 
  0x14, 0x00, 0x00, 0x00, 0x08, 0x00, 0x00, 0x00, 0x00, 0x00, 0x00, 0x02, 
  0x1c, 0x00, 0x00, 0x00, 0xe8, 0xfd, 0xff, 0xff, 0x0f, 0x00, 0x00, 0x00, 
  0x61, 0x72, 0x69, 0x74, 0x68, 0x2e, 0x63, 0x6f, 0x6e, 0x73, 0x74, 0x61, 
  0x6e, 0x74, 0x35, 0x00, 0x01, 0x00, 0x00, 0x00, 0x04, 0x00, 0x00, 0x00, 
  0x12, 0xff, 0xff, 0xff, 0x00, 0x00, 0x00, 0x01, 0x14, 0x00, 0x00, 0x00, 
  0x14, 0x00, 0x00, 0x00, 0x07, 0x00, 0x00, 0x00, 0x00, 0x00, 0x00, 0x02, 
  0x1c, 0x00, 0x00, 0x00, 0x24, 0xfe, 0xff, 0xff, 0x0f, 0x00, 0x00, 0x00, 
  0x61, 0x72, 0x69, 0x74, 0x68, 0x2e, 0x63, 0x6f, 0x6e, 0x73, 0x74, 0x61, 
  0x6e, 0x74, 0x34, 0x00, 0x00, 0x00, 0x00, 0x00, 0x4a, 0xff, 0xff, 0xff, 
  0x00, 0x00, 0x00, 0x01, 0x14, 0x00, 0x00, 0x00, 0x14, 0x00, 0x00, 0x00, 
  0x06, 0x00, 0x00, 0x00, 0x00, 0x00, 0x00, 0x02, 0x1c, 0x00, 0x00, 0x00, 
  0x5c, 0xfe, 0xff, 0xff, 0x0f, 0x00, 0x00, 0x00, 0x61, 0x72, 0x69, 0x74, 
  0x68, 0x2e, 0x63, 0x6f, 0x6e, 0x73, 0x74, 0x61, 0x6e, 0x74, 0x33, 0x00, 
  0x01, 0x00, 0x00, 0x00, 0x01, 0x00, 0x00, 0x00, 0x86, 0xff, 0xff, 0xff, 
  0x00, 0x00, 0x00, 0x01, 0x14, 0x00, 0x00, 0x00, 0x14, 0x00, 0x00, 0x00, 
  0x05, 0x00, 0x00, 0x00, 0x00, 0x00, 0x00, 0x02, 0x1c, 0x00, 0x00, 0x00, 
  0x98, 0xfe, 0xff, 0xff, 0x0f, 0x00, 0x00, 0x00, 0x61, 0x72, 0x69, 0x74, 
  0x68, 0x2e, 0x63, 0x6f, 0x6e, 0x73, 0x74, 0x61, 0x6e, 0x74, 0x32, 0x00, 
  0x01, 0x00, 0x00, 0x00, 0x01, 0x00, 0x00, 0x00, 0xc2, 0xff, 0xff, 0xff, 
  0x00, 0x00, 0x00, 0x01, 0x14, 0x00, 0x00, 0x00, 0x14, 0x00, 0x00, 0x00, 
  0x04, 0x00, 0x00, 0x00, 0x00, 0x00, 0x00, 0x02, 0x1c, 0x00, 0x00, 0x00, 
  0xd4, 0xfe, 0xff, 0xff, 0x0f, 0x00, 0x00, 0x00, 0x61, 0x72, 0x69, 0x74, 
  0x68, 0x2e, 0x63, 0x6f, 0x6e, 0x73, 0x74, 0x61, 0x6e, 0x74, 0x31, 0x00, 
  0x01, 0x00, 0x00, 0x00, 0x01, 0x00, 0x00, 0x00, 0x00, 0x00, 0x16, 0x00, 
  0x1c, 0x00, 0x18, 0x00, 0x17, 0x00, 0x10, 0x00, 0x0c, 0x00, 0x08, 0x00, 
  0x00, 0x00, 0x00, 0x00, 0x00, 0x00, 0x07, 0x00, 0x16, 0x00, 0x00, 0x00, 
  0x00, 0x00, 0x00, 0x01, 0x14, 0x00, 0x00, 0x00, 0x14, 0x00, 0x00, 0x00, 
  0x03, 0x00, 0x00, 0x00, 0x00, 0x00, 0x00, 0x02, 0x1c, 0x00, 0x00, 0x00, 
  0x28, 0xff, 0xff, 0xff, 0x0e, 0x00, 0x00, 0x00, 0x61, 0x72, 0x69, 0x74, 
  0x68, 0x2e, 0x63, 0x6f, 0x6e, 0x73, 0x74, 0x61, 0x6e, 0x74, 0x00, 0x00, 
  0x01, 0x00, 0x00, 0x00, 0x05, 0x00, 0x00, 0x00, 0x8a, 0xff, 0xff, 0xff, 
  0x00, 0x00, 0x00, 0x01, 0x14, 0x00, 0x00, 0x00, 0x28, 0x00, 0x00, 0x00, 
  0x28, 0x00, 0x00, 0x00, 0x02, 0x00, 0x00, 0x00, 0x44, 0x00, 0x00, 0x00, 
  0x05, 0x00, 0x00, 0x00, 0xff, 0xff, 0xff, 0xff, 0xff, 0xff, 0xff, 0xff, 
  0x03, 0x00, 0x00, 0x00, 0x08, 0x00, 0x00, 0x00, 0x08, 0x00, 0x00, 0x00, 
  0x7c, 0xff, 0xff, 0xff, 0x1f, 0x00, 0x00, 0x00, 0x73, 0x65, 0x72, 0x76, 
  0x69, 0x6e, 0x67, 0x5f, 0x64, 0x65, 0x66, 0x61, 0x75, 0x6c, 0x74, 0x5f, 
  0x74, 0x68, 0x65, 0x72, 0x6d, 0x61, 0x6c, 0x5f, 0x69, 0x6e, 0x70, 0x75, 
  0x74, 0x3a, 0x30, 0x00, 0x05, 0x00, 0x00, 0x00, 0x01, 0x00, 0x00, 0x00, 
  0x01, 0x00, 0x00, 0x00, 0x03, 0x00, 0x00, 0x00, 0x08, 0x00, 0x00, 0x00, 
  0x08, 0x00, 0x00, 0x00, 0x00, 0x00, 0x16, 0x00, 0x1c, 0x00, 0x18, 0x00, 
  0x00, 0x00, 0x14, 0x00, 0x10, 0x00, 0x0c, 0x00, 0x00, 0x00, 0x00, 0x00, 
  0x08, 0x00, 0x07, 0x00, 0x16, 0x00, 0x00, 0x00, 0x00, 0x00, 0x00, 0x01, 
  0x14, 0x00, 0x00, 0x00, 0x24, 0x00, 0x00, 0x00, 0x24, 0x00, 0x00, 0x00, 
  0x01, 0x00, 0x00, 0x00, 0x40, 0x00, 0x00, 0x00, 0x03, 0x00, 0x00, 0x00, 
  0xff, 0xff, 0xff, 0xff, 0xff, 0xff, 0xff, 0xff, 0x0c, 0x00, 0x00, 0x00, 
  0x04, 0x00, 0x04, 0x00, 0x04, 0x00, 0x00, 0x00, 0x1d, 0x00, 0x00, 0x00, 
  0x73, 0x65, 0x72, 0x76, 0x69, 0x6e, 0x67, 0x5f, 0x64, 0x65, 0x66, 0x61, 
  0x75, 0x6c, 0x74, 0x5f, 0x72, 0x61, 0x64, 0x61, 0x72, 0x5f, 0x69, 0x6e, 
  0x70, 0x75, 0x74, 0x3a, 0x30, 0x00, 0x00, 0x00, 0x03, 0x00, 0x00, 0x00, 
  0x01, 0x00, 0x00, 0x00, 0x01, 0x00, 0x00, 0x00, 0x0c, 0x00, 0x00, 0x00, 
  0x0b, 0x00, 0x00, 0x00, 0xc4, 0x00, 0x00, 0x00, 0xa8, 0x00, 0x00, 0x00, 
  0x98, 0x00, 0x00, 0x00, 0x84, 0x00, 0x00, 0x00, 0x68, 0x00, 0x00, 0x00, 
  0x58, 0x00, 0x00, 0x00, 0x48, 0x00, 0x00, 0x00, 0x38, 0x00, 0x00, 0x00, 
  0x28, 0x00, 0x00, 0x00, 0x14, 0x00, 0x00, 0x00, 0x04, 0x00, 0x00, 0x00, 
  0x74, 0xff, 0xff, 0xff, 0x19, 0x00, 0x00, 0x00, 0x00, 0x00, 0x00, 0x19, 
  0xb4, 0xff, 0xff, 0xff, 0x09, 0x00, 0x00, 0x00, 0x0c, 0x00, 0x00, 0x00, 
  0x00, 0x00, 0x00, 0x09, 0x90, 0xff, 0xff, 0xff, 0x28, 0x00, 0x00, 0x00, 
  0x00, 0x00, 0x00, 0x28, 0x9c, 0xff, 0xff, 0xff, 0x02, 0x00, 0x00, 0x00, 
  0x00, 0x00, 0x00, 0x02, 0xa8, 0xff, 0xff, 0xff, 0x11, 0x00, 0x00, 0x00, 
  0x00, 0x00, 0x00, 0x11, 0xb4, 0xff, 0xff, 0xff, 0x03, 0x00, 0x00, 0x00, 
  0x00, 0x00, 0x00, 0x03, 0xc0, 0xff, 0xff, 0xff, 0x16, 0x00, 0x00, 0x00, 
  0x00, 0x00, 0x00, 0x16, 0x0c, 0x00, 0x10, 0x00, 0x0f, 0x00, 0x00, 0x00, 
  0x08, 0x00, 0x04, 0x00, 0x0c, 0x00, 0x00, 0x00, 0x27, 0x00, 0x00, 0x00, 
  0x04, 0x00, 0x00, 0x00, 0x00, 0x00, 0x00, 0x27, 0xe8, 0xff, 0xff, 0xff, 
  0x53, 0x00, 0x00, 0x00, 0x00, 0x00, 0x00, 0x53, 0xf4, 0xff, 0xff, 0xff, 
  0x2d, 0x00, 0x00, 0x00, 0x00, 0x00, 0x00, 0x2d, 0x0c, 0x00, 0x0c, 0x00, 
  0x0b, 0x00, 0x00, 0x00, 0x00, 0x00, 0x04, 0x00, 0x0c, 0x00, 0x00, 0x00, 
  0x4d, 0x00, 0x00, 0x00, 0x00, 0x00, 0x00, 0x4d
};

#endif // HUMAN_ANIMAL_MODEL_DATA_H
